{
  "version": "1.0",
  "truncation": null,
  "padding": null,
  "added_tokens": [
    {
      "id": 0,
      "content": "[PAD]",
      "single_word": false,
      "lstrip": false,
      "rstrip": false,
      "normalized": false,
      "special": true
    },
    {
      "id": 1,
      "content": "[UNK]",
      "single_word": false,
      "lstrip": false,
      "rstrip": false,
      "normalized": false,
      "special": true
    }
  ],
  "normalizer": null,
  "pre_tokenizer": {
    "type": "Whitespace"
  },
  "post_processor": null,
  "decoder": null,
  "model": {
    "type": "WordPiece",
    "unk_token": "[UNK]",
    "continuing_subword_prefix": "##",
    "max_input_chars_per_word": 100,
    "vocab": {
      "[PAD]": 0,
      "[UNK]": 1,
      "\b": 2,
      "\u0010": 3,
      "!": 4,
      "\"": 5,
      "#": 6,
      "$": 7,
      "%": 8,
      "&": 9,
      "'": 10,
      "(": 11,
      ")": 12,
      "*": 13,
      "+": 14,
      ",": 15,
      "-": 16,
      ".": 17,
      "/": 18,
      "0": 19,
      "1": 20,
      "2": 21,
      "3": 22,
      "4": 23,
      "5": 24,
      "6": 25,
      "7": 26,
      "8": 27,
      "9": 28,
      ":": 29,
      ";": 30,
      "<": 31,
      "=": 32,
      ">": 33,
      "?": 34,
      "@": 35,
      "[": 36,
      "\\": 37,
      "]": 38,
      "^": 39,
      "_": 40,
      "`": 41,
      "a": 42,
      "b": 43,
      "c": 44,
      "d": 45,
      "e": 46,
      "f": 47,
      "g": 48,
      "h": 49,
      "i": 50,
      "j": 51,
      "k": 52,
      "l": 53,
      "m": 54,
      "n": 55,
      "o": 56,
      "p": 57,
      "q": 58,
      "r": 59,
      "s": 60,
      "t": 61,
      "u": 62,
      "v": 63,
      "w": 64,
      "x": 65,
      "y": 66,
      "z": 67,
      "{": 68,
      "|": 69,
      "}": 70,
      "~": 71,
      "": 72,
      "": 73,
      "": 74,
      "": 75,
      "": 76,
      "": 77,
      "": 78,
      "": 79,
      "": 80,
      "": 81,
      "¡": 82,
      "¢": 83,
      "£": 84,
      "¤": 85,
      "§": 86,
      "¨": 87,
      "«": 88,
      "­": 89,
      "®": 90,
      "³": 91,
      "´": 92,
      "·": 93,
      "º": 94,
      "»": 95,
      "½": 96,
      "¾": 97,
      "¿": 98,
      "ß": 99,
      "à": 100,
      "á": 101,
      "â": 102,
      "ã": 103,
      "ä": 104,
      "å": 105,
      "æ": 106,
      "ç": 107,
      "è": 108,
      "é": 109,
      "ê": 110,
      "ë": 111,
      "ì": 112,
      "í": 113,
      "î": 114,
      "ï": 115,
      "ð": 116,
      "ñ": 117,
      "ò": 118,
      "ó": 119,
      "ô": 120,
      "õ": 121,
      "ö": 122,
      "ø": 123,
      "ù": 124,
      "ú": 125,
      "û": 126,
      "ü": 127,
      "ý": 128,
      "ō": 129,
      "–": 130,
      "‘": 131,
      "’": 132,
      "“": 133,
      "”": 134,
      "…": 135,
      "₤": 136,
      "##e": 137,
      "##r": 138,
      "##s": 139,
      "##b": 140,
      "##a": 141,
      "##n": 142,
      "##d": 143,
      "##t": 144,
      "##o": 145,
      "##k": 146,
      "##u": 147,
      "##m": 148,
      "##v": 149,
      "##l": 150,
      "##i": 151,
      "##p": 152,
      "##z": 153,
      "##y": 154,
      "##g": 155,
      "##h": 156,
      "##c": 157,
      "##f": 158,
      "##?": 159,
      "##!": 160,
      "##)": 161,
      "##q": 162,
      "##3": 163,
      "##x": 164,
      "##\"": 165,
      "##9": 166,
      "##5": 167,
      "##4": 168,
      "##,": 169,
      "##w": 170,
      "##<": 171,
      "##1": 172,
      "##0": 173,
      "##8": 174,
      "##*": 175,
      "##:": 176,
      "##": 177,
      "##j": 178,
      "##.": 179,
      "##7": 180,
      "##;": 181,
      "##é": 182,
      "##ï": 183,
      "##ó": 184,
      "##>": 185,
      "##(": 186,
      "##'": 187,
      "##}": 188,
      "##ä": 189,
      "##/": 190,
      "##$": 191,
      "##è": 192,
      "##]": 193,
      "##-": 194,
      "##ç": 195,
      "##_": 196,
      "##2": 197,
      "##á": 198,
      "##à": 199,
      "##6": 200,
      "##ü": 201,
      "##&": 202,
      "##~": 203,
      "##@": 204,
      "##%": 205,
      "##ø": 206,
      "##¡": 207,
      "##å": 208,
      "##ú": 209,
      "##": 210,
      "##í": 211,
      "##ê": 212,
      "##â": 213,
      "##ã": 214,
      "##[": 215,
      "##ô": 216,
      "##õ": 217,
      "##=": 218,
      "##ñ": 219,
      "##ù": 220,
      "##ö": 221,
      "##î": 222,
      "##`": 223,
      "##^": 224,
      "###": 225,
      "##ë": 226,
      "##ì": 227,
      "##û": 228,
      "##{": 229,
      "##\\": 230,
      "##ý": 231,
      "##¿": 232,
      "##…": 233,
      "##": 234,
      "##¤": 235,
      "##+": 236,
      "##£": 237,
      "##æ": 238,
      "##\b": 239,
      "##": 240,
      "##“": 241,
      "##¨": 242,
      "##ò": 243,
      "##’": 244,
      "##½": 245,
      "##": 246,
      "##·": 247,
      "##ō": 248,
      "##ß": 249,
      "##ð": 250,
      "th": 251,
      "the": 252,
      "##er": 253,
      "##in": 254,
      "##nd": 255,
      "##at": 256,
      "##es": 257,
      "##or": 258,
      "##en": 259,
      "##ing": 260,
      "##is": 261,
      "##ou": 262,
      "##on": 263,
      "##ed": 264,
      "and": 265,
      "##ar": 266,
      "to": 267,
      "##ll": 268,
      "of": 269,
      "##an": 270,
      "##it": 271,
      "##re": 272,
      "in": 273,
      "##as": 274,
      "br": 275,
      "is": 276,
      "##om": 277,
      "it": 278,
      "##ic": 279,
      "/>": 280,
      "##le": 281,
      "##ot": 282,
      "wh": 283,
      "##al": 284,
      "be": 285,
      "##ut": 286,
      "##ct": 287,
      "##il": 288,
      "##ie": 289,
      "##ly": 290,
      "##st": 291,
      "on": 292,
      "this": 293,
      "##ov": 294,
      "that": 295,
      "re": 296,
      "st": 297,
      "##ow": 298,
      "##ent": 299,
      "##ad": 300,
      "##ve": 301,
      "##ch": 302,
      "##ion": 303,
      "##et": 304,
      "##ay": 305,
      "##gh": 306,
      "##se": 307,
      "mov": 308,
      "for": 309,
      "as": 310,
      "was": 311,
      "an": 312,
      "##ith": 313,
      "##im": 314,
      "/><": 315,
      "sh": 316,
      "##id": 317,
      "fil": 318,
      "film": 319,
      "se": 320,
      "##all": 321,
      "##oo": 322,
      "with": 323,
      "##ce": 324,
      "##ver": 325,
      "##am": 326,
      "##ld": 327,
      "you": 328,
      "he": 329,
      "##ir": 330,
      "movie": 331,
      "but": 332,
      "ch": 333,
      "ha": 334,
      "##ke": 335,
      "##ur": 336,
      "##ter": 337,
      "li": 338,
      "not": 339,
      ".<": 340,
      "##her": 341,
      "##ill": 342,
      "##ally": 343,
      "##ers": 344,
      "fr": 345,
      "his": 346,
      "##ess": 347,
      "##ck": 348,
      "at": 349,
      "su": 350,
      "pr": 351,
      "##est": 352,
      "are": 353,
      "##ome": 354,
      "##em": 355,
      "##pe": 356,
      "##ould": 357,
      "##ul": 358,
      "so": 359,
      "we": 360,
      "al": 361,
      "##ri": 362,
      "sc": 363,
      "have": 364,
      "her": 365,
      "##ght": 366,
      "do": 367,
      "de": 368,
      "##ain": 369,
      "one": 370,
      "##ust": 371,
      "all": 372,
      "act": 373,
      "who": 374,
      "ex": 375,
      "##un": 376,
      "##ra": 377,
      "pl": 378,
      "ab": 379,
      "com": 380,
      "##ore": 381,
      "##out": 382,
      "##op": 383,
      "##ood": 384,
      "##ab": 385,
      "ne": 386,
      "##ol": 387,
      "##act": 388,
      "ma": 389,
      "they": 390,
      "by": 391,
      "##ant": 392,
      "##el": 393,
      "##art": 394,
      "##ies": 395,
      "##us": 396,
      "##ge": 397,
      "wor": 398,
      "like": 399,
      "or": 400,
      "##pp": 401,
      "some": 402,
      "from": 403,
      "##ous": 404,
      "con": 405,
      "##ere": 406,
      "out": 407,
      "##ist": 408,
      "en": 409,
      "##os": 410,
      "there": 411,
      "##ast": 412,
      "##th": 413,
      "di": 414,
      "##ost": 415,
      "##one": 416,
      "##ven": 417,
      "##ight": 418,
      "##od": 419,
      "##ation": 420,
      "un": 421,
      "just": 422,
      "##ough": 423,
      "me": 424,
      "##um": 425,
      "le": 426,
      "##ate": 427,
      "##au": 428,
      "char": 429,
      "##ich": 430,
      "##fe": 431,
      "has": 432,
      "about": 433,
      "can": 434,
      "tim": 435,
      "##and": 436,
      "if": 437,
      "##ery": 438,
      "tr": 439,
      "##atch": 440,
      "man": 441,
      "##ory": 442,
      "what": 443,
      "##ind": 444,
      "##ive": 445,
      "##ard": 446,
      "##ack": 447,
      "##pt": 448,
      "##..": 449,
      "my": 450,
      "any": 451,
      "good": 452,
      "##ort": 453,
      "ever": 454,
      "she": 455,
      "up": 456,
      "##ook": 457,
      "##ud": 458,
      "##reat": 459,
      "charact": 460,
      "no": 461,
      "when": 462,
      "##ak": 463,
      "more": 464,
      "int": 465,
      "watch": 466,
      "fe": 467,
      "get": 468,
      "very": 469,
      "see": 470,
      "##ong": 471,
      "##ig": 472,
      "would": 473,
      "##ity": 474,
      "go": 475,
      "cl": 476,
      "##ob": 477,
      "story": 478,
      "bec": 479,
      "even": 480,
      "##ound": 481,
      "##ite": 482,
      "how": 483,
      "ar": 484,
      "time": 485,
      "am": 486,
      "##ame": 487,
      "##ff": 488,
      "per": 489,
      "##ther": 490,
      "##able": 491,
      "which": 492,
      "only": 493,
      "##oy": 494,
      "had": 495,
      "really": 496,
      "##hing": 497,
      "##og": 498,
      "##ag": 499,
      "other": 500,
      "show": 501,
      "their": 502,
      "##ious": 503,
      "##ue": 504,
      "scen": 505,
      "well": 506,
      "than": 507,
      "were": 508,
      "him": 509,
      "##itt": 510,
      "pe": 511,
      "te": 512,
      "kn": 513,
      "will": 514,
      "...": 515,
      "##ap": 516,
      "##ure": 517,
      "sp": 518,
      "##ink": 519,
      "im": 520,
      "did": 521,
      "##ick": 522,
      "them": 523,
      "##ful": 524,
      "does": 525,
      "over": 526,
      "##ars": 527,
      "end": 528,
      "mu": 529,
      "##ine": 530,
      "##ond": 531,
      "##our": 532,
      "great": 533,
      "##ays": 534,
      "##man": 535,
      "bad": 536,
      "##ade": 537,
      "bl": 538,
      "lov": 539,
      "bet": 540,
      "##ence": 541,
      "look": 542,
      "qu": 543,
      "ad": 544,
      "##so": 545,
      "##ci": 546,
      "##ment": 547,
      "##rect": 548,
      "af": 549,
      "fa": 550,
      "##ause": 551,
      "most": 552,
      "much": 553,
      "fir": 554,
      "cr": 555,
      "##ish": 556,
      "thr": 557,
      "tw": 558,
      "don": 559,
      "could": 560,
      "##ice": 561,
      "peop": 562,
      "dis": 563,
      "been": 564,
      "##pl": 565,
      "us": 566,
      "every": 567,
      "people": 568,
      "pre": 569,
      "direct": 570,
      "po": 571,
      "sa": 572,
      "first": 573,
      "into": 574,
      "also": 575,
      "##iv": 576,
      "because": 577,
      "think": 578,
      "ag": 579,
      "know": 580,
      "too": 581,
      "##ose": 582,
      "##lf": 583,
      "##ple": 584,
      "off": 585,
      "##ide": 586,
      "##int": 587,
      "##age": 588,
      "##ble": 589,
      "part": 590,
      "wr": 591,
      "real": 592,
      "##other": 593,
      "made": 594,
      "##ass": 595,
      "##per": 596,
      "car": 597,
      "##oll": 598,
      "way": 599,
      "make": 600,
      "thing": 601,
      "its": 602,
      "##ors": 603,
      "after": 604,
      "then": 605,
      "##for": 606,
      "ye": 607,
      "fun": 608,
      "##ile": 609,
      "gu": 610,
      "fl": 611,
      "##ict": 612,
      "mak": 613,
      "##pr": 614,
      "##ry": 615,
      "##te": 616,
      "##ull": 617,
      "##ated": 618,
      "movies": 619,
      "inter": 620,
      "seem": 621,
      "character": 622,
      "gr": 623,
      "##ty": 624,
      "##ces": 625,
      "##qu": 626,
      "work": 627,
      "##gin": 628,
      "ser": 629,
      "##cc": 630,
      "##ary": 631,
      "ro": 632,
      "##ical": 633,
      "##ian": 634,
      "play": 635,
      "aw": 636,
      "##iew": 637,
      "##own": 638,
      "characters": 639,
      "##ep": 640,
      "plot": 641,
      "love": 642,
      "##ually": 643,
      "films": 644,
      "##pect": 645,
      "##tain": 646,
      "dr": 647,
      "two": 648,
      "##ach": 649,
      "never": 650,
      "##fect": 651,
      "##ber": 652,
      "your": 653,
      "being": 654,
      "many": 655,
      "##self": 656,
      "##iz": 657,
      "seen": 658,
      "want": 659,
      "where": 660,
      "des": 661,
      "life": 662,
      "##ny": 663,
      ").": 664,
      "som": 665,
      "##ance": 666,
      "##ittle": 667,
      "best": 668,
      "acting": 669,
      "jo": 670,
      "hor": 671,
      "little": 672,
      "##ves": 673,
      "say": 674,
      "##ens": 675,
      "somet": 676,
      "back": 677,
      "through": 678,
      "##nder": 679,
      "##urn": 680,
      "##ip": 681,
      "##oc": 682,
      "##wn": 683,
      "##ans": 684,
      "rem": 685,
      "##ving": 686,
      "##get": 687,
      "##ath": 688,
      "##ily": 689,
      "19": 690,
      "##ang": 691,
      "##ark": 692,
      "##ents": 693,
      "may": 694,
      "##ake": 695,
      "##oss": 696,
      "spe": 697,
      "##ne": 698,
      "sl": 699,
      "here": 700,
      "ve": 701,
      "##ather": 702,
      "rec": 703,
      "str": 704,
      "##ult": 705,
      "still": 706,
      "##ild": 707,
      "better": 708,
      "##we": 709,
      "##ise": 710,
      "),": 711,
      "##ace": 712,
      "##ph": 713,
      "##ire": 714,
      "##ions": 715,
      "ke": 716,
      "perfor": 717,
      "should": 718,
      "##ia": 719,
      "again": 720,
      "bel": 721,
      "##ual": 722,
      "these": 723,
      "find": 724,
      "new": 725,
      "kill": 726,
      "att": 727,
      "##augh": 728,
      "min": 729,
      "why": 730,
      "##igh": 731,
      "old": 732,
      "scene": 733,
      "under": 734,
      "##ase": 735,
      "while": 736,
      "feel": 737,
      "prob": 738,
      "inc": 739,
      "##thing": 740,
      "such": 741,
      "res": 742,
      "em": 743,
      "##ought": 744,
      "now": 745,
      "sim": 746,
      "##ting": 747,
      "##ater": 748,
      "something": 749,
      "##iend": 750,
      "scenes": 751,
      "gen": 752,
      "##oth": 753,
      "cast": 754,
      "10": 755,
      "##odu": 756,
      "happ": 757,
      "fam": 758,
      "interest": 759,
      "##ning": 760,
      "##ably": 761,
      "hum": 762,
      "ap": 763,
      "##ac": 764,
      "##ree": 765,
      "sur": 766,
      "point": 767,
      "lot": 768,
      "##ating": 769,
      "##if": 770,
      "ev": 771,
      "mus": 772,
      "gir": 773,
      "##me": 774,
      "##ason": 775,
      "scre": 776,
      "fin": 777,
      "##are": 778,
      "##ense": 779,
      "##arly": 780,
      "##fore": 781,
      "performan": 782,
      "cont": 783,
      "##ever": 784,
      "##ations": 785,
      "##alk": 786,
      "--": 787,
      "##oun": 788,
      "wom": 789,
      "those": 790,
      "though": 791,
      "director": 792,
      "##less": 793,
      "watching": 794,
      "down": 795,
      "doesn": 796,
      "es": 797,
      "##be": 798,
      "dec": 799,
      "years": 800,
      "##ying": 801,
      "actors": 802,
      "set": 803,
      "##li": 804,
      "big": 805,
      "##ng": 806,
      "##ial": 807,
      "ob": 808,
      "didn": 809,
      "sm": 810,
      "che": 811,
      "##ror": 812,
      "before": 813,
      "id": 814,
      "##ect": 815,
      "##joy": 816,
      "ter": 817,
      "nothing": 818,
      "funny": 819,
      "enjoy": 820,
      "##vel": 821,
      "another": 822,
      "comed": 823,
      "view": 824,
      "guy": 825,
      "high": 826,
      "##av": 827,
      "long": 828,
      "young": 829,
      "fact": 830,
      "actually": 831,
      "belie": 832,
      "produ": 833,
      "makes": 834,
      "##ock": 835,
      "mis": 836,
      "mar": 837,
      "comp": 838,
      "##az": 839,
      "war": 840,
      "tak": 841,
      "ori": 842,
      "start": 843,
      "exce": 844,
      "rel": 845,
      "few": 846,
      "tri": 847,
      "##erson": 848,
      "going": 849,
      "pret": 850,
      "world": 851,
      "same": 852,
      "supp": 853,
      "girl": 854,
      "got": 855,
      "turn": 856,
      "origin": 857,
      "ind": 858,
      "##ute": 859,
      "ho": 860,
      "app": 861,
      "hard": 862,
      "diff": 863,
      "##ience": 864,
      "##ash": 865,
      "tra": 866,
      "##ub": 867,
      "##aw": 868,
      "own": 869,
      "##ool": 870,
      "sub": 871,
      "sec": 872,
      "sin": 873,
      "bit": 874,
      "ph": 875,
      "##der": 876,
      "el": 877,
      "laugh": 878,
      "##ible": 879,
      "friend": 880,
      "thought": 881,
      "inv": 882,
      "##ript": 883,
      "wond": 884,
      "ed": 885,
      "##ave": 886,
      "stu": 887,
      "##ft": 888,
      "##cial": 889,
      "quite": 890,
      "screen": 891,
      "far": 892,
      "things": 893,
      "comple": 894,
      "pretty": 895,
      "##eric": 896,
      "need": 897,
      "bu": 898,
      "right": 899,
      "bor": 900,
      "##ffect": 901,
      "bas": 902,
      "horror": 903,
      "##les": 904,
      "##aut": 905,
      "##iting": 906,
      "ins": 907,
      "around": 908,
      "seems": 909,
      "##ction": 910,
      "wonder": 911,
      "effect": 912,
      "##ib": 913,
      "take": 914,
      "original": 915,
      "person": 916,
      "kid": 917,
      "inst": 918,
      "however": 919,
      "hel": 920,
      "acc": 921,
      "##ways": 922,
      "cam": 923,
      "##ings": 924,
      "##ved": 925,
      "enough": 926,
      "##arr": 927,
      "script": 928,
      "##ced": 929,
      "##ons": 930,
      "give": 931,
      "##ween": 932,
      "enter": 933,
      "americ": 934,
      "between": 935,
      "both": 936,
      "class": 937,
      "##ically": 938,
      "series": 939,
      "cra": 940,
      "must": 941,
      "##ention": 942,
      "op": 943,
      "child": 944,
      "appe": 945,
      "action": 946,
      "read": 947,
      "sex": 948,
      "##ately": 949,
      "mom": 950,
      "kind": 951,
      "beaut": 952,
      "cons": 953,
      "come": 954,
      "without": 955,
      "family": 956,
      "tell": 957,
      "comedy": 958,
      "##ness": 959,
      "always": 960,
      "##ell": 961,
      "rev": 962,
      "hand": 963,
      "put": 964,
      "alm": 965,
      "isn": 966,
      "ep": 967,
      "let": 968,
      "saw": 969,
      "gets": 970,
      "reason": 971,
      "##ug": 972,
      "interesting": 973,
      "music": 974,
      "last": 975,
      "cin": 976,
      "role": 977,
      "##ead": 978,
      "times": 979,
      "##vious": 980,
      "##ale": 981,
      "almost": 982,
      "co": 983,
      "cinem": 984,
      "##utes": 985,
      "##icul": 986,
      "mon": 987,
      "main": 988,
      "art": 989,
      "whole": 990,
      "##ouse": 991,
      "sure": 992,
      "least": 993,
      "done": 994,
      "par": 995,
      "might": 996,
      "##ody": 997,
      "book": 998,
      "lead": 999,
      "##!!": 1000,
      "ll": 1001,
      "sch": 1002,
      "shot": 1003,
      "cle": 1004,
      "aud": 1005,
      "##its": 1006,
      "##ner": 1007,
      "differ": 1008,
      "expect": 1009,
      "expl": 1010,
      "##press": 1011,
      "##ully": 1012,
      "sound": 1013,
      "##app": 1014,
      "ide": 1015,
      "##raph": 1016,
      "##ward": 1017,
      "##ks": 1018,
      "##ines": 1019,
      "\".": 1020,
      "worth": 1021,
      "##ount": 1022,
      "cour": 1023,
      "call": 1024,
      "run": 1025,
      "\",": 1026,
      "anything": 1027,
      "making": 1028,
      "since": 1029,
      "complete": 1030,
      "##ress": 1031,
      "gl": 1032,
      "minutes": 1033,
      "##hn": 1034,
      "day": 1035,
      "night": 1036,
      "super": 1037,
      "begin": 1038,
      "##over": 1039,
      "performance": 1040,
      "##ane": 1041,
      "##oot": 1042,
      "##uring": 1043,
      "##ently": 1044,
      "probably": 1045,
      "pol": 1046,
      "help": 1047,
      "##son": 1048,
      "boy": 1049,
      "yet": 1050,
      "woman": 1051,
      "entertain": 1052,
      "##rible": 1053,
      "care": 1054,
      "chr": 1055,
      "john": 1056,
      "tv": 1057,
      "ste": 1058,
      "##ord": 1059,
      "away": 1060,
      "mat": 1061,
      "rob": 1062,
      "imp": 1063,
      "ext": 1064,
      "##ail": 1065,
      "##cially": 1066,
      "worst": 1067,
      "add": 1068,
      "##lem": 1069,
      "found": 1070,
      "rather": 1071,
      "##oney": 1072,
      "##stand": 1073,
      "sequ": 1074,
      "ty": 1075,
      "abs": 1076,
      "##**": 1077,
      "our": 1078,
      "comm": 1079,
      "##ism": 1080,
      "mean": 1081,
      "vers": 1082,
      "##red": 1083,
      "##alog": 1084,
      "##ative": 1085,
      "##ign": 1086,
      "anyone": 1087,
      "poor": 1088,
      "pres": 1089,
      "miss": 1090,
      "##xt": 1091,
      "ac": 1092,
      "##isod": 1093,
      "episod": 1094,
      "##als": 1095,
      "gi": 1096,
      "ent": 1097,
      "mind": 1098,
      "##ures": 1099,
      "less": 1100,
      "each": 1101,
      "##istic": 1102,
      "star": 1103,
      "cre": 1104,
      "##osed": 1105,
      "##apt": 1106,
      "##ition": 1107,
      "played": 1108,
      "dialog": 1109,
      "##ange": 1110,
      "pro": 1111,
      "##ives": 1112,
      "##mend": 1113,
      "##ember": 1114,
      "mur": 1115,
      "##ady": 1116,
      "bo": 1117,
      "happen": 1118,
      "believe": 1119,
      "def": 1120,
      "alth": 1121,
      "espe": 1122,
      "##ert": 1123,
      "anim": 1124,
      "although": 1125,
      "especially": 1126,
      "keep": 1127,
      "sk": 1128,
      "##ten": 1129,
      "having": 1130,
      "hal": 1131,
      "##wood": 1132,
      "course": 1133,
      "lik": 1134,
      "looking": 1135,
      "bud": 1136,
      "second": 1137,
      "##ling": 1138,
      "stand": 1139,
      "##umb": 1140,
      "##00": 1141,
      "rest": 1142,
      "comes": 1143,
      "surpr": 1144,
      "##led": 1145,
      "ey": 1146,
      "dv": 1147,
      "##aster": 1148,
      "unf": 1149,
      "goes": 1150,
      ".\"": 1151,
      "perfect": 1152,
      "##ject": 1153,
      "place": 1154,
      "sense": 1155,
      "job": 1156,
      "trying": 1157,
      "house": 1158,
      "##ither": 1159,
      "black": 1160,
      "dan": 1161,
      "##olly": 1162,
      "year": 1163,
      "dvd": 1164,
      "##ife": 1165,
      "conf": 1166,
      "##ograph": 1167,
      "dram": 1168,
      "different": 1169,
      "looks": 1170,
      "##ollow": 1171,
      "port": 1172,
      "money": 1173,
      "actor": 1174,
      "gra": 1175,
      "##lud": 1176,
      "##empt": 1177,
      "##ingly": 1178,
      "true": 1179,
      "prov": 1180,
      "problem": 1181,
      "creat": 1182,
      "##ret": 1183,
      "##here": 1184,
      "someone": 1185,
      "##ertain": 1186,
      "##ates": 1187,
      "nice": 1188,
      "##hip": 1189,
      "men": 1190,
      "pa": 1191,
      "cou": 1192,
      "##ics": 1193,
      "ann": 1194,
      "once": 1195,
      "pow": 1196,
      "head": 1197,
      "maybe": 1198,
      "##oint": 1199,
      "##ank": 1200,
      "fan": 1201,
      "##ah": 1202,
      "##ney": 1203,
      "imag": 1204,
      "everything": 1205,
      "three": 1206,
      "wasn": 1207,
      "ending": 1208,
      "fall": 1209,
      "##iter": 1210,
      "low": 1211,
      "eng": 1212,
      "american": 1213,
      "vis": 1214,
      "recom": 1215,
      "##iece": 1216,
      "mor": 1217,
      "det": 1218,
      "follow": 1219,
      "short": 1220,
      "cor": 1221,
      "recommend": 1222,
      "sing": 1223,
      "##ues": 1224,
      "##iful": 1225,
      "obvious": 1226,
      "half": 1227,
      "shows": 1228,
      "##ments": 1229,
      "toget": 1230,
      "together": 1231,
      "talk": 1232,
      "##aps": 1233,
      "certain": 1234,
      "ele": 1235,
      "said": 1236,
      "sy": 1237,
      "fav": 1238,
      "review": 1239,
      "nor": 1240,
      "father": 1241,
      "death": 1242,
      "poss": 1243,
      "plays": 1244,
      "later": 1245,
      "dra": 1246,
      "##ality": 1247,
      "everyone": 1248,
      "##ider": 1249,
      "home": 1250,
      "rom": 1251,
      "instead": 1252,
      "dre": 1253,
      "top": 1254,
      "sit": 1255,
      "effects": 1256,
      "form": 1257,
      "special": 1258,
      "version": 1259,
      "exper": 1260,
      "watched": 1261,
      "christ": 1262,
      "##ilar": 1263,
      "himself": 1264,
      "during": 1265,
      "hour": 1266,
      "ple": 1267,
      "excell": 1268,
      "##cing": 1269,
      "left": 1270,
      "beautiful": 1271,
      "audience": 1272,
      "wife": 1273,
      "dead": 1274,
      "##ames": 1275,
      "##ern": 1276,
      "rele": 1277,
      "else": 1278,
      "sus": 1279,
      "seeing": 1280,
      "##ences": 1281,
      "takes": 1282,
      "sty": 1283,
      "tit": 1284,
      "heart": 1285,
      "##ollywood": 1286,
      "tal": 1287,
      "exc": 1288,
      "##land": 1289,
      "understand": 1290,
      "simp": 1291,
      "##ortun": 1292,
      "##sy": 1293,
      "friends": 1294,
      "##ier": 1295,
      "##omb": 1296,
      "bre": 1297,
      "##ray": 1298,
      "lu": 1299,
      "camer": 1300,
      "dist": 1301,
      "red": 1302,
      "##way": 1303,
      "came": 1304,
      "##atic": 1305,
      "includ": 1306,
      "##0s": 1307,
      "##pid": 1308,
      "excellent": 1309,
      "col": 1310,
      "##itch": 1311,
      "idea": 1312,
      "tot": 1313,
      "##ional": 1314,
      "##ists": 1315,
      "serious": 1316,
      "##ted": 1317,
      "remember": 1318,
      "vi": 1319,
      "##ird": 1320,
      "sad": 1321,
      "tru": 1322,
      "##ro": 1323,
      "##uth": 1324,
      "beh": 1325,
      "disc": 1326,
      "entire": 1327,
      "fight": 1328,
      "##ited": 1329,
      "ass": 1330,
      "hist": 1331,
      "pict": 1332,
      "unt": 1333,
      "##day": 1334,
      "defin": 1335,
      "use": 1336,
      "line": 1337,
      "##fully": 1338,
      "feat": 1339,
      "stud": 1340,
      "##ton": 1341,
      "hollywood": 1342,
      "invol": 1343,
      "##ides": 1344,
      "ang": 1345,
      "##ren": 1346,
      "##arn": 1347,
      "##ime": 1348,
      "simply": 1349,
      "human": 1350,
      "wa": 1351,
      "##ster": 1352,
      "disapp": 1353,
      "##ix": 1354,
      "mem": 1355,
      "stupid": 1356,
      "song": 1357,
      "ref": 1358,
      "attempt": 1359,
      "gener": 1360,
      "##ised": 1361,
      "##gg": 1362,
      "disappoint": 1363,
      "budget": 1364,
      "##dd": 1365,
      "full": 1366,
      "wrong": 1367,
      "ir": 1368,
      "##ented": 1369,
      "##io": 1370,
      "lack": 1371,
      "vide": 1372,
      "supposed": 1373,
      "##vin": 1374,
      "ret": 1375,
      "##ets": 1376,
      "dark": 1377,
      "completely": 1378,
      "eas": 1379,
      "hero": 1380,
      "either": 1381,
      "hope": 1382,
      "mod": 1383,
      "dep": 1384,
      "try": 1385,
      "open": 1386,
      "##ared": 1387,
      "nat": 1388,
      "sw": 1389,
      "mess": 1390,
      "used": 1391,
      "##ann": 1392,
      "absol": 1393,
      "ra": 1394,
      "along": 1395,
      "loc": 1396,
      "##ru": 1397,
      "except": 1398,
      "boring": 1399,
      "school": 1400,
      "absolute": 1401,
      "##ired": 1402,
      "win": 1403,
      "performances": 1404,
      "##cy": 1405,
      "word": 1406,
      "given": 1407,
      "particul": 1408,
      "classic": 1409,
      "cop": 1410,
      "count": 1411,
      "conc": 1412,
      "pain": 1413,
      "amaz": 1414,
      "##ied": 1415,
      "fail": 1416,
      "blood": 1417,
      "bat": 1418,
      "until": 1419,
      "ok": 1420,
      "##cept": 1421,
      "adv": 1422,
      "light": 1423,
      "women": 1424,
      "production": 1425,
      "won": 1426,
      "kids": 1427,
      "awful": 1428,
      "small": 1429,
      "##oon": 1430,
      "##itten": 1431,
      "##ography": 1432,
      "##ters": 1433,
      "murder": 1434,
      "consider": 1435,
      "coll": 1436,
      "##ew": 1437,
      "emot": 1438,
      "pass": 1439,
      "rich": 1440,
      "truly": 1441,
      "viol": 1442,
      "dou": 1443,
      "camera": 1444,
      "bar": 1445,
      "##vers": 1446,
      "##ys": 1447,
      "##ize": 1448,
      "sat": 1449,
      "##ott": 1450,
      "hu": 1451,
      "exam": 1452,
      "jack": 1453,
      "reg": 1454,
      "stars": 1455,
      "dri": 1456,
      "mich": 1457,
      "##sc": 1458,
      "sort": 1459,
      "av": 1460,
      "##oice": 1461,
      "mid": 1462,
      "cut": 1463,
      "name": 1464,
      "favor": 1465,
      "ge": 1466,
      "##velop": 1467,
      "##haps": 1468,
      "couple": 1469,
      "becom": 1470,
      "mr": 1471,
      "##wh": 1472,
      "spo": 1473,
      "power": 1474,
      "video": 1475,
      "yes": 1476,
      "perhaps": 1477,
      "##ities": 1478,
      "face": 1479,
      "gre": 1480,
      "god": 1481,
      "brother": 1482,
      "next": 1483,
      "cur": 1484,
      "##elt": 1485,
      "cred": 1486,
      "##oles": 1487,
      "##olog": 1488,
      "cent": 1489,
      "desp": 1490,
      "##que": 1491,
      "episode": 1492,
      "moments": 1493,
      "definite": 1494,
      "rid": 1495,
      "walk": 1496,
      "sn": 1497,
      "##aring": 1498,
      "sever": 1499,
      "##iness": 1500,
      "live": 1501,
      "##gr": 1502,
      "##ric": 1503,
      "##tle": 1504,
      "##air": 1505,
      "playing": 1506,
      "portray": 1507,
      "##lish": 1508,
      "flick": 1509,
      "wonderful": 1510,
      "terrible": 1511,
      "early": 1512,
      "dem": 1513,
      "##ote": 1514,
      "humor": 1515,
      "master": 1516,
      "fant": 1517,
      "others": 1518,
      "slow": 1519,
      "often": 1520,
      "develop": 1521,
      "har": 1522,
      "##sel": 1523,
      "##rib": 1524,
      "doing": 1525,
      "style": 1526,
      "mother": 1527,
      "##ility": 1528,
      "getting": 1529,
      "written": 1530,
      "##ased": 1531,
      "##ories": 1532,
      "brill": 1533,
      "##ler": 1534,
      "actress": 1535,
      "##amp": 1536,
      "mag": 1537,
      "##iant": 1538,
      "itself": 1539,
      "pop": 1540,
      "lines": 1541,
      "gives": 1542,
      "##enn": 1543,
      "guess": 1544,
      "piece": 1545,
      "##ief": 1546,
      "strong": 1547,
      "##unch": 1548,
      "case": 1549,
      "quest": 1550,
      "dialogue": 1551,
      "##mer": 1552,
      "stop": 1553,
      "definitely": 1554,
      "##med": 1555,
      "impress": 1556,
      "dav": 1557,
      "lost": 1558,
      "white": 1559,
      "##cum": 1560,
      "unfortun": 1561,
      "trans": 1562,
      "capt": 1563,
      "##ming": 1564,
      "finally": 1565,
      "son": 1566,
      "become": 1567,
      ",\"": 1568,
      "##ork": 1569,
      "##body": 1570,
      "couldn": 1571,
      "uni": 1572,
      "thrill": 1573,
      "##ison": 1574,
      "oh": 1575,
      "side": 1576,
      "children": 1577,
      "val": 1578,
      "##ident": 1579,
      "close": 1580,
      "felt": 1581,
      "liked": 1582,
      "cann": 1583,
      "waste": 1584,
      "picture": 1585,
      "##ows": 1586,
      "##ized": 1587,
      "##ush": 1588,
      "##oid": 1589,
      "went": 1590,
      "##ael": 1591,
      "against": 1592,
      "##ibly": 1593,
      "worse": 1594,
      "evil": 1595,
      "##kes": 1596,
      "extre": 1597,
      "title": 1598,
      "absolutely": 1599,
      "certainly": 1600,
      "vict": 1601,
      "hit": 1602,
      "cinema": 1603,
      "nov": 1604,
      "unc": 1605,
      "##ouch": 1606,
      "pur": 1607,
      "##ony": 1608,
      "..": 1609,
      "called": 1610,
      "##ont": 1611,
      "contr": 1612,
      "support": 1613,
      "brilliant": 1614,
      "deli": 1615,
      "entertaining": 1616,
      "relations": 1617,
      "drama": 1618,
      "mention": 1619,
      "##ley": 1620,
      "past": 1621,
      "succ": 1622,
      "loved": 1623,
      "killer": 1624,
      "pet": 1625,
      "adm": 1626,
      "overall": 1627,
      "fair": 1628,
      "based": 1629,
      "##illy": 1630,
      "##ains": 1631,
      "##imes": 1632,
      "##ract": 1633,
      "et": 1634,
      "pat": 1635,
      "lives": 1636,
      "spoil": 1637,
      "fans": 1638,
      "hon": 1639,
      "beginning": 1640,
      "##ump": 1641,
      "extreme": 1642,
      "several": 1643,
      "##ular": 1644,
      "med": 1645,
      "psy": 1646,
      "rock": 1647,
      "pred": 1648,
      "direction": 1649,
      "despite": 1650,
      "##ision": 1651,
      "##ready": 1652,
      "psych": 1653,
      "list": 1654,
      "##ured": 1655,
      "break": 1656,
      "michael": 1657,
      "dev": 1658,
      "zomb": 1659,
      "##my": 1660,
      "stre": 1661,
      "town": 1662,
      "##tern": 1663,
      "already": 1664,
      "wood": 1665,
      "self": 1666,
      "##arth": 1667,
      "la": 1668,
      "##ins": 1669,
      "del": 1670,
      "##rif": 1671,
      "becomes": 1672,
      "inf": 1673,
      "vill": 1674,
      "##ams": 1675,
      "success": 1676,
      "##eng": 1677,
      "##selves": 1678,
      "##orn": 1679,
      "seemed": 1680,
      "##used": 1681,
      "example": 1682,
      "throughout": 1683,
      "relationship": 1684,
      "##line": 1685,
      "200": 1686,
      "##osp": 1687,
      "je": 1688,
      "##aughter": 1689,
      "##yn": 1690,
      "wanted": 1691,
      "game": 1692,
      "fine": 1693,
      "history": 1694,
      "##ms": 1695,
      "amazing": 1696,
      "fre": 1697,
      "num": 1698,
      "touch": 1699,
      "##ior": 1700,
      "totally": 1701,
      "occ": 1702,
      "final": 1703,
      "tech": 1704,
      "tre": 1705,
      "quality": 1706,
      "unfortunately": 1707,
      "writing": 1708,
      "##amed": 1709,
      "##king": 1710,
      "##ister": 1711,
      "##ement": 1712,
      "deser": 1713,
      "annoy": 1714,
      "##ove": 1715,
      "fem": 1716,
      "pick": 1717,
      "wants": 1718,
      "guys": 1719,
      "##ts": 1720,
      "maj": 1721,
      "##play": 1722,
      "##ided": 1723,
      "works": 1724,
      "stuff": 1725,
      "##riend": 1726,
      "days": 1727,
      "rep": 1728,
      "able": 1729,
      "!!!": 1730,
      "cult": 1731,
      "behind": 1732,
      "cost": 1733,
      "##ged": 1734,
      "prom": 1735,
      "sci": 1736,
      "tries": 1737,
      "prof": 1738,
      "##ape": 1739,
      "##uss": 1740,
      "tom": 1741,
      "docum": 1742,
      "lar": 1743,
      "mot": 1744,
      "gun": 1745,
      "foot": 1746,
      "##ination": 1747,
      "##oup": 1748,
      "today": 1749,
      "manag": 1750,
      "eff": 1751,
      ".)": 1752,
      "##orge": 1753,
      "comment": 1754,
      "##els": 1755,
      "crit": 1756,
      "wish": 1757,
      "genre": 1758,
      "appar": 1759,
      "ben": 1760,
      "swe": 1761,
      "deal": 1762,
      "enjoyed": 1763,
      "mad": 1764,
      "turns": 1765,
      "prop": 1766,
      "eyes": 1767,
      "soon": 1768,
      "etc": 1769,
      "mark": 1770,
      "gave": 1771,
      "late": 1772,
      "sol": 1773,
      "viewer": 1774,
      "age": 1775,
      "bus": 1776,
      "fig": 1777,
      "shoot": 1778,
      "import": 1779,
      "favorite": 1780,
      "directed": 1781,
      "##unk": 1782,
      "hell": 1783,
      "sle": 1784,
      "##ined": 1785,
      "lea": 1786,
      "appear": 1787,
      "sometimes": 1788,
      "incred": 1789,
      "susp": 1790,
      "met": 1791,
      "techn": 1792,
      "ant": 1793,
      "typ": 1794,
      "situ": 1795,
      "intell": 1796,
      "inde": 1797,
      "robert": 1798,
      "bur": 1799,
      "contin": 1800,
      "major": 1801,
      "exact": 1802,
      "##ese": 1803,
      "document": 1804,
      "opp": 1805,
      "##by": 1806,
      "##ger": 1807,
      "level": 1808,
      "##itive": 1809,
      "##ards": 1810,
      "city": 1811,
      "##using": 1812,
      "themselves": 1813,
      "du": 1814,
      "##ude": 1815,
      "speak": 1816,
      "obviously": 1817,
      "stra": 1818,
      "thinking": 1819,
      "##ution": 1820,
      "##cess": 1821,
      "learn": 1822,
      "moment": 1823,
      "paul": 1824,
      "voice": 1825,
      "horrible": 1826,
      "starts": 1827,
      "musical": 1828,
      "##etic": 1829,
      "const": 1830,
      "girls": 1831,
      "four": 1832,
      "##iss": 1833,
      "stories": 1834,
      "event": 1835,
      "hot": 1836,
      "cinemat": 1837,
      "room": 1838,
      "parts": 1839,
      "##ific": 1840,
      "##ench": 1841,
      "type": 1842,
      "return": 1843,
      "bab": 1844,
      "decent": 1845,
      "rent": 1846,
      "myself": 1847,
      "group": 1848,
      "plan": 1849,
      "tele": 1850,
      "hop": 1851,
      "##astic": 1852,
      "highly": 1853,
      "bro": 1854,
      "brit": 1855,
      "matter": 1856,
      "##iving": 1857,
      "hus": 1858,
      "non": 1859,
      "writer": 1860,
      "mil": 1861,
      "##ural": 1862,
      "ridicul": 1863,
      "....": 1864,
      "##where": 1865,
      "hilar": 1866,
      "feeling": 1867,
      "!!": 1868,
      "roles": 1869,
      "##vable": 1870,
      "daughter": 1871,
      "##yp": 1872,
      "##ma": 1873,
      "##like": 1874,
      "##old": 1875,
      "!)": 1876,
      "took": 1877,
      "james": 1878,
      "##band": 1879,
      "marri": 1880,
      "anyway": 1881,
      "teen": 1882,
      "weak": 1883,
      "##iet": 1884,
      "leave": 1885,
      "hold": 1886,
      "husband": 1887,
      "killed": 1888,
      "effort": 1889,
      "##ered": 1890,
      "ger": 1891,
      "chang": 1892,
      "##ung": 1893,
      "predict": 1894,
      "ridiculous": 1895,
      "!<": 1896,
      "##ipp": 1897,
      "cannot": 1898,
      "convin": 1899,
      ").<": 1900,
      "mart": 1901,
      "police": 1902,
      "particularly": 1903,
      "rating": 1904,
      "king": 1905,
      "mill": 1906,
      "says": 1907,
      "gar": 1908,
      "heard": 1909,
      "chance": 1910,
      "strange": 1911,
      "opin": 1912,
      "##antic": 1913,
      "body": 1914,
      "living": 1915,
      "violence": 1916,
      "involved": 1917,
      "##ross": 1918,
      "mel": 1919,
      "##dle": 1920,
      "##ien": 1921,
      "##ising": 1922,
      "bring": 1923,
      "air": 1924,
      "##dy": 1925,
      "order": 1926,
      "wouldn": 1927,
      "known": 1928,
      "novel": 1929,
      "stay": 1930,
      "##he": 1931,
      "##antly": 1932,
      "fut": 1933,
      "##gan": 1934,
      "step": 1935,
      "season": 1936,
      "camp": 1937,
      "##up": 1938,
      "told": 1939,
      "happens": 1940,
      "happened": 1941,
      "crap": 1942,
      "please": 1943,
      "including": 1944,
      "gore": 1945,
      "alone": 1946,
      "esc": 1947,
      "polit": 1948,
      "ru": 1949,
      "coming": 1950,
      "cool": 1951,
      "land": 1952,
      "##ax": 1953,
      "hilarious": 1954,
      "pot": 1955,
      "osc": 1956,
      "##gn": 1957,
      "##eless": 1958,
      "law": 1959,
      "clich": 1960,
      "shock": 1961,
      "dest": 1962,
      "none": 1963,
      "experience": 1964,
      "extremely": 1965,
      "ago": 1966,
      "cheap": 1967,
      "lou": 1968,
      "##ering": 1969,
      "result": 1970,
      "var": 1971,
      "ill": 1972,
      "desc": 1973,
      "simple": 1974,
      "pay": 1975,
      "pos": 1976,
      "deep": 1977,
      "##gu": 1978,
      "##iest": 1979,
      "country": 1980,
      "david": 1981,
      "##vision": 1982,
      "score": 1983,
      "check": 1984,
      "avoid": 1985,
      "english": 1986,
      "sil": 1987,
      "honest": 1988,
      "##urb": 1989,
      "##akes": 1990,
      "mc": 1991,
      "ul": 1992,
      "##cer": 1993,
      "phot": 1994,
      "career": 1995,
      "er": 1996,
      "##ether": 1997,
      "spir": 1998,
      "cat": 1999,
      "forget": 2000,
      "save": 2001,
      "number": 2002,
      "##ential": 2003,
      "quick": 2004,
      "##mak": 2005,
      "##esh": 2006,
      "sum": 2007,
      "##ett": 2008,
      "ten": 2009,
      "##zy": 2010,
      "##arch": 2011,
      "##ek": 2012,
      "foc": 2013,
      "sent": 2014,
      "##side": 2015,
      "##ik": 2016,
      "##iff": 2017,
      "frank": 2018,
      "fur": 2019,
      "myst": 2020,
      "mist": 2021,
      "sor": 2022,
      "exactly": 2023,
      "##ral": 2024,
      "##use": 2025,
      "seriously": 2026,
      "modern": 2027,
      "annoying": 2028,
      "treat": 2029,
      "##owing": 2030,
      "shown": 2031,
      "198": 2032,
      "jap": 2033,
      "post": 2034,
      "suff": 2035,
      "similar": 2036,
      "sym": 2037,
      "huge": 2038,
      "prot": 2039,
      "##ational": 2040,
      "opinion": 2041,
      "fill": 2042,
      "usually": 2043,
      "documentary": 2044,
      "ones": 2045,
      "cinematography": 2046,
      "##outh": 2047,
      "whose": 2048,
      "ends": 2049,
      "looked": 2050,
      "prem": 2051,
      "gh": 2052,
      "##uck": 2053,
      "reality": 2054,
      "wes": 2055,
      "##ino": 2056,
      "running": 2057,
      "possible": 2058,
      "talent": 2059,
      "yourself": 2060,
      "dam": 2061,
      "pull": 2062,
      "##ram": 2063,
      "japan": 2064,
      "ear": 2065,
      "earth": 2066,
      "change": 2067,
      "hours": 2068,
      "jokes": 2069,
      "secret": 2070,
      "dog": 2071,
      "released": 2072,
      "across": 2073,
      "##bo": 2074,
      "ut": 2075,
      "##enty": 2076,
      "happy": 2077,
      "##tra": 2078,
      "taken": 2079,
      "opening": 2080,
      "narr": 2081,
      "##nded": 2082,
      "##lling": 2083,
      "usual": 2084,
      "##what": 2085,
      "...<": 2086,
      "apart": 2087,
      "single": 2088,
      "##ances": 2089,
      "somewhat": 2090,
      "willi": 2091,
      "scary": 2092,
      "##nds": 2093,
      "doub": 2094,
      "near": 2095,
      "cla": 2096,
      "197": 2097,
      "##rop": 2098,
      "odd": 2099,
      "gold": 2100,
      "##ival": 2101,
      "talking": 2102,
      "middle": 2103,
      "sam": 2104,
      "meet": 2105,
      "##itting": 2106,
      "finds": 2107,
      "sold": 2108,
      "\")": 2109,
      "filmmak": 2110,
      "among": 2111,
      "mostly": 2112,
      "cart": 2113,
      "!\"": 2114,
      "started": 2115,
      "##ator": 2116,
      "bill": 2117,
      "##ina": 2118,
      "##ians": 2119,
      "saying": 2120,
      "jer": 2121,
      "exist": 2122,
      "##wards": 2123,
      "important": 2124,
      "build": 2125,
      "eye": 2126,
      "##co": 2127,
      "taking": 2128,
      "subject": 2129,
      "straight": 2130,
      "television": 2131,
      "##sh": 2132,
      "exp": 2133,
      "female": 2134,
      "suspense": 2135,
      "episodes": 2136,
      "##ield": 2137,
      "intr": 2138,
      "##ugg": 2139,
      "##ained": 2140,
      "turned": 2141,
      "richard": 2142,
      "remind": 2143,
      "shots": 2144,
      "##lic": 2145,
      "ask": 2146,
      "creep": 2147,
      "##ground": 2148,
      "20": 2149,
      "sign": 2150,
      "##form": 2151,
      "##otic": 2152,
      "aren": 2153,
      "##iety": 2154,
      "disappointed": 2155,
      "equ": 2156,
      "inn": 2157,
      "events": 2158,
      "apparently": 2159,
      "atm": 2160,
      "intellig": 2161,
      "romantic": 2162,
      "local": 2163,
      "deliver": 2164,
      "##ec": 2165,
      "adult": 2166,
      "free": 2167,
      "##ones": 2168,
      "emb": 2169,
      "bey": 2170,
      "##ubb": 2171,
      "songs": 2172,
      "thriller": 2173,
      "pub": 2174,
      "##ball": 2175,
      "basically": 2176,
      "knew": 2177,
      "clearly": 2178,
      "atmosp": 2179,
      "##anger": 2180,
      "supporting": 2181,
      "fast": 2182,
      "comic": 2183,
      "knows": 2184,
      "british": 2185,
      "five": 2186,
      "lo": 2187,
      "respect": 2188,
      "attention": 2189,
      "problems": 2190,
      "easily": 2191,
      "199": 2192,
      "detail": 2193,
      "oscar": 2194,
      "jud": 2195,
      "hands": 2196,
      "##eth": 2197,
      "compl": 2198,
      "lady": 2199,
      "pleas": 2200,
      "sequence": 2201,
      "future": 2202,
      "due": 2203,
      "##bel": 2204,
      "box": 2205,
      "##br": 2206,
      "silly": 2207,
      "##ital": 2208,
      "space": 2209,
      "cap": 2210,
      "##ental": 2211,
      "unlike": 2212,
      "##ike": 2213,
      "stun": 2214,
      "##ury": 2215,
      "##ants": 2216,
      "words": 2217,
      "##reci": 2218,
      "vir": 2219,
      "##den": 2220,
      "dull": 2221,
      "##lly": 2222,
      "attack": 2223,
      "forg": 2224,
      "ham": 2225,
      "norm": 2226,
      "match": 2227,
      "##iod": 2228,
      "##iel": 2229,
      "tells": 2230,
      "beyond": 2231,
      "mater": 2232,
      "grand": 2233,
      "question": 2234,
      "den": 2235,
      "##ises": 2236,
      "gang": 2237,
      "##iction": 2238,
      "present": 2239,
      "team": 2240,
      "sexual": 2241,
      "van": 2242,
      "whether": 2243,
      "##ished": 2244,
      "##orable": 2245,
      "fell": 2246,
      "entertainment": 2247,
      "tar": 2248,
      "george": 2249,
      "appreci": 2250,
      "die": 2251,
      "##oul": 2252,
      "mystery": 2253,
      "##ats": 2254,
      "prog": 2255,
      "falls": 2256,
      "predictable": 2257,
      "##usion": 2258,
      "period": 2259,
      "material": 2260,
      "dream": 2261,
      "sister": 2262,
      "theat": 2263,
      "lee": 2264,
      "upon": 2265,
      "cover": 2266,
      "aspect": 2267,
      "actual": 2268,
      "enjoyable": 2269,
      "cliché": 2270,
      "hate": 2271,
      "##ky": 2272,
      "##gy": 2273,
      "##ension": 2274,
      "york": 2275,
      "##tim": 2276,
      "moving": 2277,
      "hun": 2278,
      "##ald": 2279,
      "needs": 2280,
      "##oof": 2281,
      "previous": 2282,
      "joe": 2283,
      "suck": 2284,
      "wind": 2285,
      "##ili": 2286,
      "stri": 2287,
      "adapt": 2288,
      "sequel": 2289,
      "los": 2290,
      "comb": 2291,
      "appears": 2292,
      "points": 2293,
      "##ox": 2294,
      "path": 2295,
      "##ots": 2296,
      "nearly": 2297,
      "superb": 2298,
      "mer": 2299,
      "above": 2300,
      "animation": 2301,
      "fire": 2302,
      "giving": 2303,
      "french": 2304,
      "##asc": 2305,
      "twist": 2306,
      "sets": 2307,
      "german": 2308,
      "hom": 2309,
      "##wise": 2310,
      "##asy": 2311,
      "within": 2312,
      "feels": 2313,
      "ultim": 2314,
      "ways": 2315,
      "##ires": 2316,
      "prin": 2317,
      "flaw": 2318,
      "victim": 2319,
      "##path": 2320,
      "clear": 2321,
      "release": 2322,
      "message": 2323,
      "clim": 2324,
      "storyline": 2325,
      "feature": 2326,
      "##how": 2327,
      "##arely": 2328,
      "personal": 2329,
      "easy": 2330,
      "fi": 2331,
      "pac": 2332,
      "surv": 2333,
      "lots": 2334,
      "surprised": 2335,
      "doubt": 2336,
      "haven": 2337,
      "herself": 2338,
      "setting": 2339,
      "aff": 2340,
      "theater": 2341,
      "est": 2342,
      "trou": 2343,
      "buy": 2344,
      "peter": 2345,
      "hall": 2346,
      "using": 2347,
      "famous": 2348,
      "insp": 2349,
      "advent": 2350,
      "jim": 2351,
      "drug": 2352,
      "wait": 2353,
      "fantastic": 2354,
      "weird": 2355,
      "theme": 2356,
      "bunch": 2357,
      "accept": 2358,
      "ca": 2359,
      "##ana": 2360,
      "western": 2361,
      "third": 2362,
      "?)": 2363,
      "truth": 2364,
      "tale": 2365,
      "##ex": 2366,
      "##nding": 2367,
      "tried": 2368,
      "roll": 2369,
      "##ength": 2370,
      "disney": 2371,
      "working": 2372,
      "begins": 2373,
      "elements": 2374,
      "##dden": 2375,
      "'.": 2376,
      "auth": 2377,
      "##ices": 2378,
      "##icult": 2379,
      "sudden": 2380,
      "deb": 2381,
      "##aught": 2382,
      "hear": 2383,
      "profess": 2384,
      "***": 2385,
      "comments": 2386,
      "general": 2387,
      "##sw": 2388,
      "##ctor": 2389,
      "compan": 2390,
      "editing": 2391,
      "dumb": 2392,
      "##imin": 2393,
      "showing": 2394,
      "reve": 2395,
      "##essed": 2396,
      "viewers": 2397,
      "named": 2398,
      "##res": 2399,
      "##ps": 2400,
      "slight": 2401,
      "difficult": 2402,
      "sorry": 2403,
      "##track": 2404,
      "visual": 2405,
      "soundtrack": 2406,
      "large": 2407,
      "typical": 2408,
      "pal": 2409,
      "##light": 2410,
      "express": 2411,
      "decided": 2412,
      "stage": 2413,
      "aver": 2414,
      "crime": 2415,
      "lame": 2416,
      "realistic": 2417,
      "oper": 2418,
      "fly": 2419,
      "writ": 2420,
      "figure": 2421,
      "ghost": 2422,
      "##uses": 2423,
      "means": 2424,
      "flash": 2425,
      "kept": 2426,
      "park": 2427,
      "##omin": 2428,
      "sugg": 2429,
      "catch": 2430,
      "vamp": 2431,
      "wild": 2432,
      "suggest": 2433,
      "wall": 2434,
      "note": 2435,
      "minute": 2436,
      "viewing": 2437,
      "parents": 2438,
      "zombie": 2439,
      "##lin": 2440,
      "',": 2441,
      "front": 2442,
      "greatest": 2443,
      "project": 2444,
      "##ope": 2445,
      "obs": 2446,
      "contain": 2447,
      "utter": 2448,
      "?\"": 2449,
      "##omp": 2450,
      "filmed": 2451,
      "meaning": 2452,
      "business": 2453,
      "##ening": 2454,
      "195": 2455,
      "mix": 2456,
      "cal": 2457,
      "imagine": 2458,
      "water": 2459,
      "atmosphere": 2460,
      "liter": 2461,
      "##rit": 2462,
      "lat": 2463,
      "america": 2464,
      "whate": 2465,
      "move": 2466,
      "heav": 2467,
      "##opp": 2468,
      "whatever": 2469,
      "somehow": 2470,
      "indeed": 2471,
      "exec": 2472,
      "dance": 2473,
      "eur": 2474,
      "ital": 2475,
      "beat": 2476,
      "reviews": 2477,
      "gone": 2478,
      "shame": 2479,
      "##ively": 2480,
      "leads": 2481,
      "##ceed": 2482,
      "iss": 2483,
      "soc": 2484,
      "earli": 2485,
      "pure": 2486,
      "male": 2487,
      "conne": 2488,
      "particular": 2489,
      "##na": 2490,
      "introdu": 2491,
      "average": 2492,
      "tast": 2493,
      "##db": 2494,
      "?<": 2495,
      "sens": 2496,
      "##oose": 2497,
      "street": 2498,
      "premise": 2499,
      "public": 2500,
      "##onic": 2501,
      "revol": 2502,
      "poorly": 2503,
      "jane": 2504,
      "##mas": 2505,
      "strugg": 2506,
      "sleep": 2507,
      "spirit": 2508,
      "band": 2509,
      "surprise": 2510,
      "okay": 2511,
      "masterp": 2512,
      "eventually": 2513,
      "baby": 2514,
      "lim": 2515,
      "imdb": 2516,
      "sequences": 2517,
      "teach": 2518,
      "jump": 2519,
      "chees": 2520,
      "possibly": 2521,
      "wit": 2522,
      "##back": 2523,
      "brought": 2524,
      "expected": 2525,
      "sweet": 2526,
      "hy": 2527,
      "193": 2528,
      "background": 2529,
      "believable": 2530,
      "thank": 2531,
      "##bert": 2532,
      "nature": 2533,
      "further": 2534,
      "##ially": 2535,
      "##head": 2536,
      "girlf": 2537,
      "phil": 2538,
      "lang": 2539,
      "terrif": 2540,
      "fu": 2541,
      "hur": 2542,
      "ver": 2543,
      "##zz": 2544,
      "##com": 2545,
      "reading": 2546,
      "costum": 2547,
      "badly": 2548,
      "##rated": 2549,
      "##ored": 2550,
      "japanese": 2551,
      "ball": 2552,
      "##bers": 2553,
      "leaves": 2554,
      "starr": 2555,
      "enc": 2556,
      "villain": 2557,
      "fasc": 2558,
      "forward": 2559,
      "##ously": 2560,
      "clos": 2561,
      "monster": 2562,
      "rand": 2563,
      "scott": 2564,
      "write": 2565,
      "bored": 2566,
      "train": 2567,
      "##overs": 2568,
      "##...": 2569,
      "screenplay": 2570,
      "situation": 2571,
      "##iences": 2572,
      "became": 2573,
      "unique": 2574,
      "bother": 2575,
      "mach": 2576,
      "flat": 2577,
      "luck": 2578,
      "needed": 2579,
      "memorable": 2580,
      "earlier": 2581,
      "pu": 2582,
      "appeal": 2583,
      "girlfriend": 2584,
      "da": 2585,
      "##uted": 2586,
      "stick": 2587,
      "design": 2588,
      "killing": 2589,
      "commun": 2590,
      "mo": 2591,
      "##hood": 2592,
      "laughs": 2593,
      "clever": 2594,
      "ach": 2595,
      "burn": 2596,
      "mass": 2597,
      "sick": 2598,
      "forced": 2599,
      "##right": 2600,
      "uns": 2601,
      "romance": 2602,
      "##emy": 2603,
      "trad": 2604,
      "196": 2605,
      "resp": 2606,
      "gay": 2607,
      "otherwise": 2608,
      "ale": 2609,
      "jul": 2610,
      "meant": 2611,
      "realize": 2612,
      "##key": 2613,
      "conv": 2614,
      "##pend": 2615,
      "emotional": 2616,
      "jour": 2617,
      "##ages": 2618,
      "development": 2619,
      "30": 2620,
      "battle": 2621,
      "emotion": 2622,
      "##ding": 2623,
      "total": 2624,
      "##roy": 2625,
      "concept": 2626,
      "impr": 2627,
      "writers": 2628,
      "fran": 2629,
      "unless": 2630,
      "meets": 2631,
      "hair": 2632,
      "older": 2633,
      "footage": 2634,
      "##ges": 2635,
      "credits": 2636,
      "und": 2637,
      "##bs": 2638,
      "##gs": 2639,
      "##cers": 2640,
      "inte": 2641,
      "beauty": 2642,
      "sal": 2643,
      "society": 2644,
      "prison": 2645,
      "##ogn": 2646,
      "directing": 2647,
      "christmas": 2648,
      "disturb": 2649,
      "mir": 2650,
      "##ai": 2651,
      "brain": 2652,
      "directors": 2653,
      "refer": 2654,
      "acted": 2655,
      "trash": 2656,
      "dramatic": 2657,
      "##por": 2658,
      "##inc": 2659,
      "##ara": 2660,
      "histor": 2661,
      "cartoon": 2662,
      "##uct": 2663,
      "##ula": 2664,
      "mac": 2665,
      "perfectly": 2666,
      "ble": 2667,
      "##uc": 2668,
      "keeps": 2669,
      "plenty": 2670,
      "fantasy": 2671,
      "popular": 2672,
      "rad": 2673,
      "social": 2674,
      "doctor": 2675,
      "interested": 2676,
      "creepy": 2677,
      "incredibly": 2678,
      "##owed": 2679,
      "nud": 2680,
      "imm": 2681,
      "crazy": 2682,
      "sounds": 2683,
      "masterpiece": 2684,
      "cheesy": 2685,
      "occas": 2686,
      "dad": 2687,
      "/>\"": 2688,
      "brings": 2689,
      "fred": 2690,
      "##aking": 2691,
      "##rupt": 2692,
      "rate": 2693,
      "##isf": 2694,
      "whom": 2695,
      "innoc": 2696,
      "kick": 2697,
      "##view": 2698,
      "##fer": 2699,
      "worked": 2700,
      "features": 2701,
      "colle": 2702,
      "plus": 2703,
      "aust": 2704,
      "towards": 2705,
      "repr": 2706,
      "arr": 2707,
      "green": 2708,
      "answ": 2709,
      "desper": 2710,
      "telling": 2711,
      "ign": 2712,
      "sun": 2713,
      "##ague": 2714,
      "cond": 2715,
      "casting": 2716,
      "cir": 2717,
      "##ived": 2718,
      "leading": 2719,
      "??": 2720,
      "stere": 2721,
      "boys": 2722,
      "langu": 2723,
      "##lie": 2724,
      "##rap": 2725,
      "relig": 2726,
      "repe": 2727,
      "potential": 2728,
      "fest": 2729,
      "outside": 2730,
      "fails": 2731,
      "admit": 2732,
      "les": 2733,
      "agree": 2734,
      "create": 2735,
      "##real": 2736,
      "##aked": 2737,
      "cold": 2738,
      "log": 2739,
      "##ius": 2740,
      "##gest": 2741,
      "##let": 2742,
      "powerful": 2743,
      "political": 2744,
      "quickly": 2745,
      "bed": 2746,
      "mary": 2747,
      "neg": 2748,
      "track": 2749,
      "william": 2750,
      "cas": 2751,
      "joke": 2752,
      "attract": 2753,
      "color": 2754,
      "ess": 2755,
      "invest": 2756,
      "##iliar": 2757,
      "extra": 2758,
      "##inger": 2759,
      "194": 2760,
      "discover": 2761,
      "collect": 2762,
      "80": 2763,
      "broad": 2764,
      "##ches": 2765,
      "##olf": 2766,
      "hardly": 2767,
      "cru": 2768,
      "various": 2769,
      "portrayed": 2770,
      "era": 2771,
      "mal": 2772,
      "married": 2773,
      "ast": 2774,
      "##more": 2775,
      "stat": 2776,
      "phys": 2777,
      "ideas": 2778,
      "crew": 2779,
      "deserves": 2780,
      "claim": 2781,
      "##ero": 2782,
      "purp": 2783,
      "amount": 2784,
      "copy": 2785,
      "nudity": 2786,
      "reasons": 2787,
      "fighting": 2788,
      "plain": 2789,
      "missing": 2790,
      "positive": 2791,
      "mas": 2792,
      "##cessary": 2793,
      "mood": 2794,
      "##wart": 2795,
      "##venge": 2796,
      "appro": 2797,
      "talented": 2798,
      "attempts": 2799,
      "manages": 2800,
      "island": 2801,
      "sadly": 2802,
      "##--": 2803,
      "##arrass": 2804,
      "detect": 2805,
      "15": 2806,
      "pie": 2807,
      "ri": 2808,
      "sympath": 2809,
      "##bor": 2810,
      "##ills": 2811,
      "##ivid": 2812,
      "expecting": 2813,
      "##ology": 2814,
      "##ey": 2815,
      "fairly": 2816,
      "embarrass": 2817,
      "reveal": 2818,
      "remake": 2819,
      "scient": 2820,
      "stereot": 2821,
      "ident": 2822,
      "soul": 2823,
      "##friend": 2824,
      "offic": 2825,
      "trail": 2826,
      "recogn": 2827,
      "medi": 2828,
      "destroy": 2829,
      "ber": 2830,
      "ur": 2831,
      "##ishing": 2832,
      "##lect": 2833,
      "react": 2834,
      "depth": 2835,
      "hol": 2836,
      "##ken": 2837,
      "fat": 2838,
      "produced": 2839,
      "inside": 2840,
      "accident": 2841,
      "fit": 2842,
      "chem": 2843,
      "office": 2844,
      "##ips": 2845,
      "recently": 2846,
      "##asher": 2847,
      "scar": 2848,
      "cute": 2849,
      "fear": 2850,
      "filmmakers": 2851,
      "bull": 2852,
      "danger": 2853,
      "reach": 2854,
      "##itty": 2855,
      "spoilers": 2856,
      "biz": 2857,
      "bott": 2858,
      "requ": 2859,
      "doll": 2860,
      "##berg": 2861,
      "achie": 2862,
      "sand": 2863,
      "##istry": 2864,
      "ram": 2865,
      "myster": 2866,
      "cry": 2867,
      "common": 2868,
      "mentioned": 2869,
      "porn": 2870,
      "ended": 2871,
      "funn": 2872,
      "idi": 2873,
      "missed": 2874,
      "delight": 2875,
      "##belie": 2876,
      "##itted": 2877,
      "wrote": 2878,
      "record": 2879,
      "##....": 2880,
      "credit": 2881,
      "tur": 2882,
      "##oph": 2883,
      "lege": 2884,
      "familiar": 2885,
      "subtle": 2886,
      "europe": 2887,
      "##arre": 2888,
      "draw": 2889,
      "tension": 2890,
      "remark": 2891,
      "scream": 2892,
      "angel": 2893,
      "cand": 2894,
      "incredible": 2895,
      "rap": 2896,
      "caught": 2897,
      "considering": 2898,
      "##lu": 2899,
      "brief": 2900,
      "unbelie": 2901,
      "explain": 2902,
      "##ders": 2903,
      "revenge": 2904,
      "##oop": 2905,
      "created": 2906,
      "century": 2907,
      "ce": 2908,
      "##go": 2909,
      "wasted": 2910,
      "din": 2911,
      "##lusion": 2912,
      "immed": 2913,
      "brothers": 2914,
      "##aces": 2915,
      "##off": 2916,
      "intri": 2917,
      "pointless": 2918,
      "following": 2919,
      "victor": 2920,
      "kar": 2921,
      "amb": 2922,
      "members": 2923,
      "escape": 2924,
      "intelligent": 2925,
      "language": 2926,
      "party": 2927,
      "complex": 2928,
      "90": 2929,
      "mere": 2930,
      "##ron": 2931,
      "##ient": 2932,
      "slasher": 2933,
      "kills": 2934,
      "comput": 2935,
      "dancing": 2936,
      "##ites": 2937,
      "intern": 2938,
      "compared": 2939,
      "travel": 2940,
      "anti": 2941,
      "tough": 2942,
      "ine": 2943,
      "sees": 2944,
      "chann": 2945,
      "manner": 2946,
      "##agon": 2947,
      "glad": 2948,
      "immedi": 2949,
      "(\"": 2950,
      "lab": 2951,
      "##gar": 2952,
      "##erv": 2953,
      "choice": 2954,
      "haun": 2955,
      "solid": 2956,
      "bes": 2957,
      "fash": 2958,
      "imposs": 2959,
      "waiting": 2960,
      "control": 2961,
      "neither": 2962,
      "decides": 2963,
      "convincing": 2964,
      "forgot": 2965,
      "##izing": 2966,
      "##overn": 2967,
      "former": 2968,
      "rece": 2969,
      "crimin": 2970,
      "heavy": 2971,
      "breat": 2972,
      "six": 2973,
      "##uce": 2974,
      "##lict": 2975,
      "force": 2976,
      "science": 2977,
      "##esome": 2978,
      "suspect": 2979,
      "approach": 2980,
      "harr": 2981,
      "numb": 2982,
      "##orm": 2983,
      "search": 2984,
      "week": 2985,
      "company": 2986,
      "##oe": 2987,
      "##alth": 2988,
      "store": 2989,
      "natural": 2990,
      "filled": 2991,
      "##eem": 2992,
      "stan": 2993,
      "moves": 2994,
      "cross": 2995,
      "uses": 2996,
      "laughing": 2997,
      "animated": 2998,
      "regard": 2999,
      "##rage": 3000,
      "smith": 3001,
      "basic": 3002,
      "adventure": 3003,
      "bizarre": 3004,
      "cause": 3005,
      "pace": 3006,
      "state": 3007,
      "##ades": 3008,
      "suit": 3009,
      "spent": 3010,
      "road": 3011,
      "##acy": 3012,
      "effective": 3013,
      "zombies": 3014,
      "##ned": 3015,
      "terror": 3016,
      "singing": 3017,
      "magic": 3018,
      "suddenly": 3019,
      "dim": 3020,
      "wer": 3021,
      "amusing": 3022,
      "ground": 3023,
      "spend": 3024,
      "accent": 3025,
      "exciting": 3026,
      "successful": 3027,
      "italian": 3028,
      "lad": 3029,
      "##par": 3030,
      "key": 3031,
      "##ibility": 3032,
      "entirely": 3033,
      "violent": 3034,
      "witch": 3035,
      "##iers": 3036,
      "alex": 3037,
      "test": 3038,
      "tony": 3039,
      "bomb": 3040,
      "pack": 3041,
      "##itation": 3042,
      "arri": 3043,
      "news": 3044,
      "books": 3045,
      "tort": 3046,
      "faith": 3047,
      "ultimately": 3048,
      "ran": 3049,
      "fort": 3050,
      "##urs": 3051,
      "##la": 3052,
      "studio": 3053,
      "##come": 3054,
      "brut": 3055,
      "died": 3056,
      "appreciate": 3057,
      "slightly": 3058,
      "##work": 3059,
      "critic": 3060,
      "hid": 3061,
      "ted": 3062,
      "##ene": 3063,
      "##rew": 3064,
      "genu": 3065,
      "value": 3066,
      "opportun": 3067,
      "ray": 3068,
      "##aging": 3069,
      "trip": 3070,
      "satisf": 3071,
      "trouble": 3072,
      "govern": 3073,
      "fascin": 3074,
      "hen": 3075,
      "ii": 3076,
      "wal": 3077,
      "west": 3078,
      "##gic": 3079,
      "awesome": 3080,
      "recent": 3081,
      "biggest": 3082,
      "##iment": 3083,
      "pract": 3084,
      "steve": 3085,
      "milit": 3086,
      "fol": 3087,
      "##uit": 3088,
      "carry": 3089,
      "smo": 3090,
      "runs": 3091,
      "bond": 3092,
      "##inary": 3093,
      "concern": 3094,
      "impressive": 3095,
      "focus": 3096,
      "genuine": 3097,
      "50": 3098,
      "##ries": 3099,
      "afric": 3100,
      "planet": 3101,
      "repres": 3102,
      "##isingly": 3103,
      "##ilt": 3104,
      "loud": 3105,
      "fake": 3106,
      "explo": 3107,
      "portrayal": 3108,
      "shar": 3109,
      "seg": 3110,
      "##pped": 3111,
      "taste": 3112,
      "fashion": 3113,
      "impossible": 3114,
      "que": 3115,
      "##ze": 3116,
      "producers": 3117,
      "##ribly": 3118,
      "situations": 3119,
      "compe": 3120,
      "dick": 3121,
      "squ": 3122,
      "##ette": 3123,
      "legend": 3124,
      "fool": 3125,
      "##ened": 3126,
      "leg": 3127,
      "thanks": 3128,
      "product": 3129,
      "##standing": 3130,
      "depict": 3131,
      "chemistry": 3132,
      "##iced": 3133,
      "younger": 3134,
      "showed": 3135,
      "spot": 3136,
      "longer": 3137,
      "exception": 3138,
      "magn": 3139,
      "culture": 3140,
      "pers": 3141,
      "follows": 3142,
      "recommended": 3143,
      "author": 3144,
      "##ring": 3145,
      "drag": 3146,
      "conclusion": 3147,
      "garb": 3148,
      "normal": 3149,
      "college": 3150,
      "dir": 3151,
      "##ensive": 3152,
      "stewart": 3153,
      "rated": 3154,
      "south": 3155,
      "tor": 3156,
      "somewhere": 3157,
      "100": 3158,
      "##ounter": 3159,
      "considered": 3160,
      "##oor": 3161,
      "continu": 3162,
      "weren": 3163,
      "depress": 3164,
      "proper": 3165,
      "stereotyp": 3166,
      "##iny": 3167,
      "##une": 3168,
      "amate": 3169,
      "generally": 3170,
      "detective": 3171,
      "##de": 3172,
      "##oved": 3173,
      "door": 3174,
      "makers": 3175,
      "award": 3176,
      "compet": 3177,
      "favour": 3178,
      "leaving": 3179,
      "gri": 3180,
      "pan": 3181,
      "questions": 3182,
      "literally": 3183,
      "disturbing": 3184,
      "fresh": 3185,
      "values": 3186,
      "pathetic": 3187,
      "purpose": 3188,
      "barely": 3189,
      "hang": 3190,
      "##ha": 3191,
      "alien": 3192,
      "images": 3193,
      "assum": 3194,
      "##ological": 3195,
      "changed": 3196,
      "##arily": 3197,
      "charming": 3198,
      "throw": 3199,
      "##aced": 3200,
      "audiences": 3201,
      "pictures": 3202,
      "failed": 3203,
      "shooting": 3204,
      "starring": 3205,
      "##row": 3206,
      "##ppy": 3207,
      "decide": 3208,
      "computer": 3209,
      "rain": 3210,
      "##min": 3211,
      "##att": 3212,
      "##sters": 3213,
      "##ization": 3214,
      "minor": 3215,
      "finish": 3216,
      "ability": 3217,
      "ups": 3218,
      "disg": 3219,
      "tem": 3220,
      "##bl": 3221,
      "repl": 3222,
      "spect": 3223,
      "##ille": 3224,
      "neigh": 3225,
      "##ode": 3226,
      "yeah": 3227,
      "mouth": 3228,
      "vo": 3229,
      "##ried": 3230,
      "##ager": 3231,
      "addition": 3232,
      "stunning": 3233,
      "cow": 3234,
      "##ham": 3235,
      "aside": 3236,
      "harry": 3237,
      "##ka": 3238,
      "unex": 3239,
      "boss": 3240,
      "tone": 3241,
      "jes": 3242,
      "wise": 3243,
      "hey": 3244,
      "lif": 3245,
      "##aged": 3246,
      "##anna": 3247,
      "70": 3248,
      "##xic": 3249,
      "wee": 3250,
      "humour": 3251,
      "smart": 3252,
      "likes": 3253,
      "million": 3254,
      "garbage": 3255,
      "bob": 3256,
      "fiction": 3257,
      "lond": 3258,
      "russ": 3259,
      "##lla": 3260,
      "redeem": 3261,
      "barb": 3262,
      "journey": 3263,
      "mi": 3264,
      "##izes": 3265,
      "producer": 3266,
      "indust": 3267,
      "impression": 3268,
      "immediately": 3269,
      "##fort": 3270,
      "chur": 3271,
      "grade": 3272,
      "##ging": 3273,
      "##urd": 3274,
      "alive": 3275,
      "##opher": 3276,
      "affect": 3277,
      "military": 3278,
      "london": 3279,
      "notice": 3280,
      "##iously": 3281,
      "involving": 3282,
      "climax": 3283,
      "inform": 3284,
      "proc": 3285,
      "sexy": 3286,
      "paris": 3287,
      "boyfriend": 3288,
      "rare": 3289,
      "##ee": 3290,
      "##aa": 3291,
      "knowing": 3292,
      "bought": 3293,
      "##to": 3294,
      "club": 3295,
      "nightm": 3296,
      "chris": 3297,
      "surprisingly": 3298,
      "11": 3299,
      "length": 3300,
      "##rey": 3301,
      "suc": 3302,
      "blond": 3303,
      "##ifully": 3304,
      "added": 3305,
      "##while": 3306,
      "adaptation": 3307,
      "bottom": 3308,
      "amateur": 3309,
      "fox": 3310,
      "chase": 3311,
      "##aper": 3312,
      "personally": 3313,
      "motion": 3314,
      "honestly": 3315,
      "pil": 3316,
      "serv": 3317,
      "genius": 3318,
      "christian": 3319,
      "utterly": 3320,
      "succeed": 3321,
      "graph": 3322,
      "##rel": 3323,
      "##sey": 3324,
      "nobody": 3325,
      "grant": 3326,
      "kelly": 3327,
      "investig": 3328,
      "mult": 3329,
      "##vey": 3330,
      "##sequ": 3331,
      "interview": 3332,
      "edge": 3333,
      "absurd": 3334,
      "random": 3335,
      "tradition": 3336,
      "channel": 3337,
      "charm": 3338,
      "arch": 3339,
      "army": 3340,
      "drive": 3341,
      "gem": 3342,
      "noir": 3343,
      "thinks": 3344,
      "ring": 3345,
      "threat": 3346,
      "##idence": 3347,
      "##cif": 3348,
      "##lessly": 3349,
      "comedies": 3350,
      "indian": 3351,
      "walking": 3352,
      "date": 3353,
      "##ining": 3354,
      "spl": 3355,
      "serial": 3356,
      "standard": 3357,
      "demon": 3358,
      "jeff": 3359,
      "appearance": 3360,
      "sar": 3361,
      "sitting": 3362,
      "##boy": 3363,
      "sell": 3364,
      "month": 3365,
      "\".<": 3366,
      "conflict": 3367,
      "drawn": 3368,
      "batman": 3369,
      "bi": 3370,
      "ride": 3371,
      "blue": 3372,
      "##ified": 3373,
      "##cast": 3374,
      "##erous": 3375,
      "##str": 3376,
      "compar": 3377,
      "##ops": 3378,
      "##room": 3379,
      "silent": 3380,
      "bal": 3381,
      "der": 3382,
      "##iring": 3383,
      "##appe": 3384,
      "prep": 3385,
      "##ify": 3386,
      "insult": 3387,
      "central": 3388,
      "boo": 3389,
      "gag": 3390,
      "##men": 3391,
      "allen": 3392,
      "likely": 3393,
      "themes": 3394,
      "terms": 3395,
      "beautifully": 3396,
      "passion": 3397,
      "equally": 3398,
      "##mark": 3399,
      "##wor": 3400,
      "##ropri": 3401,
      "18": 3402,
      "rog": 3403,
      "defe": 3404,
      "remains": 3405,
      "surr": 3406,
      "accur": 3407,
      "soldiers": 3408,
      "thin": 3409,
      "justice": 3410,
      "touching": 3411,
      "wow": 3412,
      "##ases": 3413,
      "painful": 3414,
      "terrific": 3415,
      "costumes": 3416,
      "government": 3417,
      "church": 3418,
      "##die": 3419,
      "##vent": 3420,
      "##hen": 3421,
      "disappointing": 3422,
      "init": 3423,
      "##stem": 3424,
      "trick": 3425,
      "arg": 3426,
      "element": 3427,
      "managed": 3428,
      "base": 3429,
      "naked": 3430,
      "thus": 3431,
      "##imp": 3432,
      "##aint": 3433,
      "nowhere": 3434,
      "mistake": 3435,
      "narrative": 3436,
      "breath": 3437,
      "##anda": 3438,
      "christopher": 3439,
      "issues": 3440,
      "witness": 3441,
      "respons": 3442,
      "fully": 3443,
      "lord": 3444,
      "##aven": 3445,
      "##ores": 3446,
      "everybody": 3447,
      "drunk": 3448,
      "avail": 3449,
      "program": 3450,
      "medioc": 3451,
      "intrigu": 3452,
      "##rick": 3453,
      "chall": 3454,
      "trust": 3455,
      "laughable": 3456,
      "system": 3457,
      "marriage": 3458,
      "unbelievable": 3459,
      "henry": 3460,
      "bon": 3461,
      "ju": 3462,
      "pen": 3463,
      "##vert": 3464,
      "photography": 3465,
      "##itions": 3466,
      "fore": 3467,
      "ash": 3468,
      "outstanding": 3469,
      "arth": 3470,
      "curr": 3471,
      "independ": 3472,
      "innocent": 3473,
      "40": 3474,
      "aut": 3475,
      "##uff": 3476,
      "charlie": 3477,
      "block": 3478,
      "cinematic": 3479,
      "pieces": 3480,
      "joy": 3481,
      "##gl": 3482,
      "excuse": 3483,
      "connect": 3484,
      "jew": 3485,
      "##ios": 3486,
      "bruce": 3487,
      "critics": 3488,
      "escap": 3489,
      "round": 3490,
      "roy": 3491,
      "anth": 3492,
      "twists": 3493,
      "steal": 3494,
      "dreams": 3495,
      "spoiler": 3496,
      "flashback": 3497,
      "vampire": 3498,
      "host": 3499,
      "##ica": 3500,
      "##uster": 3501,
      "##unt": 3502,
      "individ": 3503,
      "details": 3504,
      "##ki": 3505,
      "chick": 3506,
      "##oughly": 3507,
      "crow": 3508,
      "presented": 3509,
      "stands": 3510,
      "univers": 3511,
      "constantly": 3512,
      "hosp": 3513,
      "loves": 3514,
      "thrown": 3515,
      "surely": 3516,
      "presence": 3517,
      "cg": 3518,
      "loose": 3519,
      "nast": 3520,
      "##ole": 3521,
      "##mm": 3522,
      "##ped": 3523,
      "surf": 3524,
      "influ": 3525,
      "##vir": 3526,
      "##gen": 3527,
      "##ena": 3528,
      "sher": 3529,
      "expectations": 3530,
      "disappointment": 3531,
      "jean": 3532,
      "mysterious": 3533,
      "thor": 3534,
      "shall": 3535,
      "fright": 3536,
      "charles": 3537,
      "speaking": 3538,
      "besides": 3539,
      "na": 3540,
      "##verse": 3541,
      "offer": 3542,
      "slowly": 3543,
      "affair": 3544,
      "historical": 3545,
      "numbers": 3546,
      "jones": 3547,
      "nick": 3548,
      "##han": 3549,
      "impl": 3550,
      "buck": 3551,
      "impact": 3552,
      "commer": 3553,
      "moral": 3554,
      "behav": 3555,
      "festival": 3556,
      "rac": 3557,
      "##ched": 3558,
      "intense": 3559,
      "discuss": 3560,
      "developed": 3561,
      "cele": 3562,
      "eight": 3563,
      "##oes": 3564,
      "lovely": 3565,
      "clean": 3566,
      "animals": 3567,
      "opera": 3568,
      "opportunity": 3569,
      "fascinating": 3570,
      "cell": 3571,
      "mild": 3572,
      "##eter": 3573,
      "scenery": 3574,
      "buff": 3575,
      "##****": 3576,
      "names": 3577,
      "page": 3578,
      "##icated": 3579,
      "##aine": 3580,
      "##ability": 3581,
      "hoping": 3582,
      "contains": 3583,
      "##wr": 3584,
      "held": 3585,
      "heaven": 3586,
      "sport": 3587,
      "suppose": 3588,
      "hotel": 3589,
      "aspects": 3590,
      "##uous": 3591,
      "describ": 3592,
      "sight": 3593,
      "filming": 3594,
      "soft": 3595,
      "correct": 3596,
      "##gedy": 3597,
      "ahead": 3598,
      "rip": 3599,
      "ww": 3600,
      "forever": 3601,
      "places": 3602,
      "grace": 3603,
      "surround": 3604,
      "moon": 3605,
      "prim": 3606,
      "acts": 3607,
      "drink": 3608,
      "subst": 3609,
      "arthur": 3610,
      "##mon": 3611,
      "ener": 3612,
      "ban": 3613,
      "dies": 3614,
      "hat": 3615,
      "san": 3616,
      "ug": 3617,
      "##isc": 3618,
      "shakes": 3619,
      "div": 3620,
      "##ploy": 3621,
      "intended": 3622,
      "##itude": 3623,
      "shad": 3624,
      "##!!!!": 3625,
      "eat": 3626,
      "##af": 3627,
      "##ini": 3628,
      "laughed": 3629,
      "mainly": 3630,
      "falling": 3631,
      "##ruct": 3632,
      "available": 3633,
      "individual": 3634,
      "##esty": 3635,
      "cloth": 3636,
      "lover": 3637,
      "include": 3638,
      "building": 3639,
      "adults": 3640,
      "civ": 3641,
      "ment": 3642,
      "##oud": 3643,
      "brand": 3644,
      "##icip": 3645,
      "scr": 3646,
      "woods": 3647,
      "hurt": 3648,
      "hospital": 3649,
      "12": 3650,
      "billy": 3651,
      "wed": 3652,
      "wid": 3653,
      "##abb": 3654,
      "##ford": 3655,
      "highlight": 3656,
      "priv": 3657,
      "prec": 3658,
      "likable": 3659,
      "student": 3660,
      "emotions": 3661,
      "double": 3662,
      "martin": 3663,
      "13": 3664,
      "dubb": 3665,
      "##zan": 3666,
      "##edy": 3667,
      "ship": 3668,
      "dress": 3669,
      "fellow": 3670,
      "gorge": 3671,
      "lam": 3672,
      "##eman": 3673,
      "uncle": 3674,
      "image": 3675,
      "overl": 3676,
      "blind": 3677,
      "feelings": 3678,
      "object": 3679,
      "devil": 3680,
      "kr": 3681,
      "pun": 3682,
      "ros": 3683,
      "race": 3684,
      "tired": 3685,
      "zero": 3686,
      "##ancy": 3687,
      "##irth": 3688,
      "students": 3689,
      "celebr": 3690,
      "sant": 3691,
      "##icide": 3692,
      "puts": 3693,
      "putting": 3694,
      "melod": 3695,
      "protagon": 3696,
      "mediocre": 3697,
      "##table": 3698,
      "##erm": 3699,
      "##inct": 3700,
      "##olic": 3701,
      "arm": 3702,
      "qual": 3703,
      "twice": 3704,
      "appeared": 3705,
      "lighting": 3706,
      "changes": 3707,
      "hide": 3708,
      "share": 3709,
      "lived": 3710,
      "##ribe": 3711,
      "span": 3712,
      "happening": 3713,
      "elect": 3714,
      "jerry": 3715,
      "commercial": 3716,
      "led": 3717,
      "resem": 3718,
      "mont": 3719,
      "followed": 3720,
      "negative": 3721,
      "##kn": 3722,
      "born": 3723,
      "confused": 3724,
      "field": 3725,
      "artist": 3726,
      "victims": 3727,
      "hill": 3728,
      "jon": 3729,
      "fault": 3730,
      "tragedy": 3731,
      "giant": 3732,
      "lacks": 3733,
      "nons": 3734,
      "ol": 3735,
      "wide": 3736,
      "steven": 3737,
      "virt": 3738,
      "funniest": 3739,
      "compelling": 3740,
      "disgust": 3741,
      "hasn": 3742,
      "knock": 3743,
      "content": 3744,
      "americans": 3745,
      "creative": 3746,
      "oppos": 3747,
      "summer": 3748,
      "holes": 3749,
      "##ta": 3750,
      "canad": 3751,
      "##ift": 3752,
      "sky": 3753,
      "jackson": 3754,
      "relationships": 3755,
      "civil": 3756,
      "net": 3757,
      "##field": 3758,
      "##iday": 3759,
      "murders": 3760,
      "rape": 3761,
      "winning": 3762,
      "trailer": 3763,
      "queen": 3764,
      "ms": 3765,
      "##uts": 3766,
      "mexic": 3767,
      "proves": 3768,
      "occasion": 3769,
      "merely": 3770,
      "dom": 3771,
      "seven": 3772,
      "childhood": 3773,
      "supposedly": 3774,
      "delivers": 3775,
      "##ech": 3776,
      "##ok": 3777,
      "wondering": 3778,
      "standards": 3779,
      "provides": 3780,
      "damn": 3781,
      "professional": 3782,
      "multi": 3783,
      "bak": 3784,
      "##rid": 3785,
      "##ession": 3786,
      "##ledge": 3787,
      "reminded": 3788,
      "answer": 3789,
      "jenn": 3790,
      "youth": 3791,
      "dig": 3792,
      "offers": 3793,
      "imagination": 3794,
      "dread": 3795,
      "##ushed": 3796,
      "gorgeous": 3797,
      "bank": 3798,
      "rout": 3799,
      "##lor": 3800,
      "##ature": 3801,
      "##entially": 3802,
      "remain": 3803,
      "difference": 3804,
      "confusing": 3805,
      "brian": 3806,
      "##tend": 3807,
      "formula": 3808,
      "actresses": 3809,
      "laur": 3810,
      "##arsh": 3811,
      "disappe": 3812,
      "speed": 3813,
      "austral": 3814,
      "forgotten": 3815,
      "folks": 3816,
      "spectac": 3817,
      "finding": 3818,
      "stuck": 3819,
      "acad": 3820,
      "flaws": 3821,
      "sem": 3822,
      "unus": 3823,
      "seemingly": 3824,
      "irrit": 3825,
      "impressed": 3826,
      "davis": 3827,
      "soldier": 3828,
      "thoroughly": 3829,
      "shakespe": 3830,
      "games": 3831,
      "lock": 3832,
      "mut": 3833,
      "hack": 3834,
      "##ustr": 3835,
      "##text": 3836,
      "danny": 3837,
      "williams": 3838,
      "progress": 3839,
      "estab": 3840,
      "ugly": 3841,
      "##ued": 3842,
      "station": 3843,
      "##ander": 3844,
      "quiet": 3845,
      "##ples": 3846,
      "worthy": 3847,
      "depart": 3848,
      "listen": 3849,
      "circ": 3850,
      "cook": 3851,
      "sir": 3852,
      "##ilities": 3853,
      "##raid": 3854,
      "market": 3855,
      "latter": 3856,
      "##yc": 3857,
      "##aries": 3858,
      "bright": 3859,
      "area": 3860,
      "scare": 3861,
      "therefore": 3862,
      "display": 3863,
      "desert": 3864,
      "animal": 3865,
      "flicks": 3866,
      "aim": 3867,
      "lose": 3868,
      "rented": 3869,
      "##onna": 3870,
      "disaster": 3871,
      "tragic": 3872,
      "helps": 3873,
      "##een": 3874,
      "##pping": 3875,
      "##agger": 3876,
      "relative": 3877,
      ".,": 3878,
      "hook": 3879,
      "##orter": 3880,
      "agent": 3881,
      "personality": 3882,
      "explan": 3883,
      "skin": 3884,
      "seconds": 3885,
      "achieve": 3886,
      "hidden": 3887,
      "##con": 3888,
      "##oned": 3889,
      "##read": 3890,
      "brown": 3891,
      "stock": 3892,
      "states": 3893,
      "convers": 3894,
      "unne": 3895,
      "remote": 3896,
      "turning": 3897,
      "consist": 3898,
      "location": 3899,
      "wooden": 3900,
      "fab": 3901,
      "punch": 3902,
      "##asure": 3903,
      "alan": 3904,
      "resc": 3905,
      "crack": 3906,
      "court": 3907,
      "syn": 3908,
      "symb": 3909,
      "industry": 3910,
      "melodram": 3911,
      "bath": 3912,
      "tay": 3913,
      "##ique": 3914,
      "##hs": 3915,
      "##house": 3916,
      "carr": 3917,
      "protect": 3918,
      "attractive": 3919,
      "rh": 3920,
      "##nia": 3921,
      "thats": 3922,
      "weap": 3923,
      "afraid": 3924,
      "##azz": 3925,
      "flying": 3926,
      "hitch": 3927,
      "mob": 3928,
      "member": 3929,
      "tour": 3930,
      "##ano": 3931,
      "##unny": 3932,
      "##aud": 3933,
      "shocking": 3934,
      "inspired": 3935,
      "scientist": 3936,
      "nasty": 3937,
      "birth": 3938,
      "##ef": 3939,
      "##roc": 3940,
      "##anks": 3941,
      "unreal": 3942,
      "##pected": 3943,
      "paid": 3944,
      "##gory": 3945,
      "werew": 3946,
      "##azy": 3947,
      "creature": 3948,
      "apartment": 3949,
      "information": 3950,
      "food": 3951,
      "mental": 3952,
      "wars": 3953,
      "soap": 3954,
      "bland": 3955,
      "sav": 3956,
      "horse": 3957,
      "##ountain": 3958,
      "drugs": 3959,
      "shakespeare": 3960,
      "**": 3961,
      "##aton": 3962,
      "##anic": 3963,
      "contem": 3964,
      "craft": 3965,
      "visit": 3966,
      "domin": 3967,
      "ice": 3968,
      "naz": 3969,
      "##pret": 3970,
      "superior": 3971,
      "adds": 3972,
      "struggle": 3973,
      "east": 3974,
      "lay": 3975,
      "andy": 3976,
      "##asing": 3977,
      "stone": 3978,
      "##illing": 3979,
      "anymore": 3980,
      "adam": 3981,
      "warning": 3982,
      "robin": 3983,
      "captain": 3984,
      "hitler": 3985,
      "describe": 3986,
      "##icious": 3987,
      "asks": 3988,
      "faces": 3989,
      "carl": 3990,
      "horrif": 3991,
      "shouldn": 3992,
      "ready": 3993,
      "includes": 3994,
      "becoming": 3995,
      "dirty": 3996,
      "bog": 3997,
      "moved": 3998,
      "prefer": 3999,
      "strength": 4000,
      "warm": 4001,
      "wonderfully": 4002,
      "angry": 4003,
      "theatre": 4004,
      "clothes": 4005,
      "card": 4006,
      "nomin": 4007,
      "##hic": 4008,
      "conn": 4009,
      ".....": 4010,
      "morgan": 4011,
      "deserved": 4012,
      "picked": 4013,
      "summ": 4014,
      "load": 4015,
      "unexpected": 4016,
      "lyn": 4017,
      "rit": 4018,
      "##aur": 4019,
      "willing": 4020,
      "sac": 4021,
      "vision": 4022,
      "##board": 4023,
      "tarzan": 4024,
      "taylor": 4025,
      "rul": 4026,
      "##earch": 4027,
      "onto": 4028,
      "wearing": 4029,
      "grow": 4030,
      "accord": 4031,
      "martial": 4032,
      "jason": 4033,
      "rose": 4034,
      "soph": 4035,
      "allowed": 4036,
      "##well": 4037,
      "underst": 4038,
      "research": 4039,
      "compare": 4040,
      "collection": 4041,
      "gent": 4042,
      "actions": 4043,
      "unkn": 4044,
      "##ands": 4045,
      "##pective": 4046,
      "powers": 4047,
      "religious": 4048,
      "##aff": 4049,
      "##under": 4050,
      "##oted": 4051,
      "chuck": 4052,
      "loving": 4053,
      "artistic": 4054,
      "##inese": 4055,
      "contrast": 4056,
      "teenage": 4057,
      "desperate": 4058,
      "independent": 4059,
      "lin": 4060,
      "mcc": 4061,
      "sour": 4062,
      "##bles": 4063,
      "bear": 4064,
      "wel": 4065,
      "##ograp": 4066,
      "employ": 4067,
      "humans": 4068,
      "subt": 4069,
      "commentary": 4070,
      "stephen": 4071,
      "virgin": 4072,
      "criminal": 4073,
      "dying": 4074,
      "fle": 4075,
      "rus": 4076,
      "##atter": 4077,
      "chinese": 4078,
      "##illa": 4079,
      "doz": 4080,
      "helped": 4081,
      "england": 4082,
      "hund": 4083,
      "filmmaker": 4084,
      "intelligence": 4085,
      "redeeming": 4086,
      "rubb": 4087,
      "##kin": 4088,
      "##und": 4089,
      "##soever": 4090,
      "lets": 4091,
      "radio": 4092,
      "brutal": 4093,
      "favourite": 4094,
      "energy": 4095,
      "whatsoever": 4096,
      "machine": 4097,
      "##ropriate": 4098,
      "?!": 4099,
      "core": 4100,
      "brid": 4101,
      "alt": 4102,
      "watchable": 4103,
      "tears": 4104,
      "comedic": 4105,
      "teacher": 4106,
      "crowd": 4107,
      ".'": 4108,
      "mountain": 4109,
      "sab": 4110,
      "andrew": 4111,
      "##otes": 4112,
      "anybody": 4113,
      "grad": 4114,
      "##iance": 4115,
      "accom": 4116,
      "target": 4117,
      "river": 4118,
      "cars": 4119,
      "wil": 4120,
      "##herent": 4121,
      "flesh": 4122,
      "phone": 4123,
      "insight": 4124,
      "engaging": 4125,
      "heroes": 4126,
      "media": 4127,
      "introduced": 4128,
      "pilot": 4129,
      "wedding": 4130,
      "fate": 4131,
      "gam": 4132,
      "##rors": 4133,
      "##yl": 4134,
      "lew": 4135,
      "##entional": 4136,
      "johnny": 4137,
      "ladies": 4138,
      "magnific": 4139,
      "rarely": 4140,
      "##entious": 4141,
      "##urally": 4142,
      "unw": 4143,
      "crash": 4144,
      "epic": 4145,
      "matth": 4146,
      "friendship": 4147,
      "dougl": 4148,
      "cate": 4149,
      "eth": 4150,
      "hint": 4151,
      "plane": 4152,
      "daniel": 4153,
      "north": 4154,
      "technical": 4155,
      "???": 4156,
      "fal": 4157,
      "hyp": 4158,
      "jr": 4159,
      "jose": 4160,
      "ron": 4161,
      "##ste": 4162,
      "##oos": 4163,
      "unin": 4164,
      "empt": 4165,
      "continue": 4166,
      "##ipped": 4167,
      "repeated": 4168,
      "neighbor": 4169,
      "process": 4170,
      "70s": 4171,
      "kate": 4172,
      "suicide": 4173,
      "price": 4174,
      "##ifer": 4175,
      "##apped": 4176,
      "physical": 4177,
      "academy": 4178,
      "chap": 4179,
      "arts": 4180,
      "60": 4181,
      "cab": 4182,
      "##ube": 4183,
      "##ency": 4184,
      "began": 4185,
      "press": 4186,
      "anywhere": 4187,
      "knowledge": 4188,
      "robb": 4189,
      "luc": 4190,
      "deeply": 4191,
      "russian": 4192,
      "cgi": 4193,
      "##yer": 4194,
      "##ga": 4195,
      "allow": 4196,
      "max": 4197,
      "somebody": 4198,
      "memory": 4199,
      "bloody": 4200,
      "cind": 4201,
      "sid": 4202,
      "tun": 4203,
      "ven": 4204,
      "##yan": 4205,
      "##orious": 4206,
      "shir": 4207,
      "slap": 4208,
      "skip": 4209,
      "columb": 4210,
      "signific": 4211,
      "torture": 4212,
      "douglas": 4213,
      "##ras": 4214,
      "##oom": 4215,
      "##ium": 4216,
      "thom": 4217,
      "ens": 4218,
      "grat": 4219,
      "higher": 4220,
      "revolution": 4221,
      "hated": 4222,
      "necessary": 4223,
      "growing": 4224,
      "vehic": 4225,
      "gene": 4226,
      "smile": 4227,
      "transl": 4228,
      "returns": 4229,
      "pleasure": 4230,
      "normally": 4231,
      "80s": 4232,
      "cage": 4233,
      "##iven": 4234,
      "##itz": 4235,
      "cho": 4236,
      "pra": 4237,
      "flow": 4238,
      "desire": 4239,
      "perform": 4240,
      "castle": 4241,
      "eddie": 4242,
      "kidn": 4243,
      "board": 4244,
      "occur": 4245,
      "apparent": 4246,
      "remarkable": 4247,
      "eric": 4248,
      "ful": 4249,
      "jan": 4250,
      "##lli": 4251,
      "##osh": 4252,
      "blame": 4253,
      "surprising": 4254,
      "nicely": 4255,
      "guns": 4256,
      "holds": 4257,
      "establish": 4258,
      "explanation": 4259,
      "##ographer": 4260,
      "ly": 4261,
      "loss": 4262,
      "##ba": 4263,
      "brook": 4264,
      "albert": 4265,
      "enth": 4266,
      "recall": 4267,
      "finished": 4268,
      "heroine": 4269,
      "prince": 4270,
      "intriguing": 4271,
      "lind": 4272,
      "mine": 4273,
      "opt": 4274,
      "sis": 4275,
      "thous": 4276,
      "##ooper": 4277,
      "saving": 4278,
      "realized": 4279,
      "president": 4280,
      "skill": 4281,
      "provide": 4282,
      "regret": 4283,
      "clichés": 4284,
      "candy": 4285,
      "jesus": 4286,
      "unusual": 4287,
      "hundred": 4288,
      "##stein": 4289,
      "sed": 4290,
      "##ators": 4291,
      "tend": 4292,
      "lovers": 4293,
      "explos": 4294,
      "freak": 4295,
      "motiv": 4296,
      "nightmare": 4297,
      "kiss": 4298,
      "##eper": 4299,
      "##bre": 4300,
      "##ashing": 4301,
      "washing": 4302,
      "chore": 4303,
      "twenty": 4304,
      "interact": 4305,
      "plots": 4306,
      "belong": 4307,
      "trek": 4308,
      "nonsense": 4309,
      "accompl": 4310,
      "dor": 4311,
      "earn": 4312,
      "separ": 4313,
      "##odies": 4314,
      "dressed": 4315,
      "##ipul": 4316,
      "intellect": 4317,
      "constant": 4318,
      "reminds": 4319,
      "000": 4320,
      "##za": 4321,
      "ford": 4322,
      "##aph": 4323,
      "struct": 4324,
      "capture": 4325,
      "unknown": 4326,
      "fer": 4327,
      "##bi": 4328,
      "##bid": 4329,
      "##bian": 4330,
      "thir": 4331,
      "brave": 4332,
      "##ilst": 4333,
      "lies": 4334,
      "hadn": 4335,
      "spin": 4336,
      "superman": 4337,
      "deserve": 4338,
      "limited": 4339,
      "according": 4340,
      "cath": 4341,
      "##urity": 4342,
      "wanting": 4343,
      "##iac": 4344,
      "instance": 4345,
      "explained": 4346,
      "pacing": 4347,
      "****": 4348,
      "gard": 4349,
      "mike": 4350,
      "national": 4351,
      "rub": 4352,
      "vhs": 4353,
      "##rical": 4354,
      "##bc": 4355,
      "whilst": 4356,
      "stink": 4357,
      "specif": 4358,
      "gotten": 4359,
      "!).": 4360,
      "##ker": 4361,
      "ord": 4362,
      "##ousy": 4363,
      "keaton": 4364,
      "monsters": 4365,
      "villains": 4366,
      "player": 4367,
      "creating": 4368,
      "dimens": 4369,
      "ner": 4370,
      "##ners": 4371,
      "##time": 4372,
      "forces": 4373,
      "aband": 4374,
      "interpret": 4375,
      "originally": 4376,
      "purs": 4377,
      "freed": 4378,
      "pulled": 4379,
      "paced": 4380,
      "debut": 4381,
      "mixed": 4382,
      "officer": 4383,
      "unnecessary": 4384,
      "cass": 4385,
      "dut": 4386,
      "nic": 4387,
      "##atra": 4388,
      "toward": 4389,
      "##entions": 4390,
      "shop": 4391,
      "sea": 4392,
      "priest": 4393,
      "scared": 4394,
      "players": 4395,
      "starting": 4396,
      "cops": 4397,
      "curious": 4398,
      "asked": 4399,
      "jimmy": 4400,
      "fif": 4401,
      "##kward": 4402,
      "##ante": 4403,
      "leon": 4404,
      "charism": 4405,
      "manage": 4406,
      "peace": 4407,
      "##pless": 4408,
      "safe": 4409,
      "partner": 4410,
      "mission": 4411,
      "model": 4412,
      "judge": 4413,
      "dangerous": 4414,
      "accurate": 4415,
      "tight": 4416,
      "vol": 4417,
      "##aus": 4418,
      "##ked": 4419,
      "##ls": 4420,
      "floor": 4421,
      "bits": 4422,
      "reflect": 4423,
      "frequ": 4424,
      "months": 4425,
      "cable": 4426,
      "gas": 4427,
      "jess": 4428,
      "ris": 4429,
      "##ris": 4430,
      "/>-": 4431,
      "joan": 4432,
      "heads": 4433,
      "understanding": 4434,
      "issue": 4435,
      "european": 4436,
      "jennifer": 4437,
      "rubbish": 4438,
      "14": 4439,
      "hart": 4440,
      "kur": 4441,
      "rod": 4442,
      "tick": 4443,
      "##itor": 4444,
      "une": 4445,
      "saved": 4446,
      "realism": 4447,
      "awkward": 4448,
      "simon": 4449,
      "simpl": 4450,
      "##ruction": 4451,
      "uncon": 4452,
      "fond": 4453,
      "paper": 4454,
      "ren": 4455,
      "##ym": 4456,
      "##ario": 4457,
      "reun": 4458,
      "unint": 4459,
      "aware": 4460,
      "kevin": 4461,
      "featuring": 4462,
      "community": 4463,
      "private": 4464,
      "bow": 4465,
      "dated": 4466,
      "rat": 4467,
      "##hol": 4468,
      "##ested": 4469,
      "finale": 4470,
      "contrib": 4471,
      "terribly": 4472,
      "insane": 4473,
      "humanity": 4474,
      "dealing": 4475,
      "princi": 4476,
      "cali": 4477,
      "responsible": 4478,
      "bound": 4479,
      "fet": 4480,
      "hits": 4481,
      "##rous": 4482,
      "##nat": 4483,
      "##cock": 4484,
      "liber": 4485,
      "atroc": 4486,
      "##othy": 4487,
      "marie": 4488,
      "singer": 4489,
      "nin": 4490,
      "stalk": 4491,
      "stret": 4492,
      "pretentious": 4493,
      "educ": 4494,
      ".\"<": 4495,
      "pair": 4496,
      "imagin": 4497,
      "assist": 4498,
      "psycho": 4499,
      "werewolf": 4500,
      "eating": 4501,
      "##ban": 4502,
      "##lled": 4503,
      "anne": 4504,
      "##iro": 4505,
      "##ulous": 4506,
      "marvel": 4507,
      "account": 4508,
      "skills": 4509,
      "sword": 4510,
      "satire": 4511,
      "hopes": 4512,
      "international": 4513,
      "harris": 4514,
      "behavior": 4515,
      "opposite": 4516,
      "gig": 4517,
      "vs": 4518,
      "##nam": 4519,
      "##war": 4520,
      "frame": 4521,
      "organ": 4522,
      "golden": 4523,
      "blonde": 4524,
      "spanish": 4525,
      "lewis": 4526,
      "empty": 4527,
      "gary": 4528,
      "lone": 4529,
      "##oons": 4530,
      "##vant": 4531,
      "##iding": 4532,
      "##ements": 4533,
      "##arded": 4534,
      "contri": 4535,
      "belief": 4536,
      "proceed": 4537,
      "snow": 4538,
      "numerous": 4539,
      "sucks": 4540,
      "delightful": 4541,
      "symbol": 4542,
      "lynch": 4543,
      "##sem": 4544,
      "finest": 4545,
      "boat": 4546,
      "keeping": 4547,
      "reviewers": 4548,
      "included": 4549,
      "locations": 4550,
      "philos": 4551,
      "screaming": 4552,
      "gal": 4553,
      "##atory": 4554,
      "##che": 4555,
      "##imental": 4556,
      "ali": 4557,
      "##pper": 4558,
      "cris": 4559,
      "below": 4560,
      "luke": 4561,
      "fights": 4562,
      "naturally": 4563,
      "cuts": 4564,
      "freddy": 4565,
      "##port": 4566,
      "##father": 4567,
      "##isa": 4568,
      "##icate": 4569,
      "seat": 4570,
      "sund": 4571,
      "whenever": 4572,
      "prove": 4573,
      "determ": 4574,
      "satur": 4575,
      "psychological": 4576,
      ":<": 4577,
      "bag": 4578,
      "kim": 4579,
      "vac": 4580,
      "veter": 4581,
      "##eness": 4582,
      "##anced": 4583,
      "bell": 4584,
      "sean": 4585,
      "noticed": 4586,
      "context": 4587,
      "##ivity": 4588,
      "standing": 4589,
      "treated": 4590,
      "perspective": 4591,
      "anthony": 4592,
      "dun": 4593,
      "ow": 4594,
      "##).": 4595,
      "##ication": 4596,
      "##esting": 4597,
      "wealth": 4598,
      "##abor": 4599,
      "##asts": 4600,
      "resol": 4601,
      "screw": 4602,
      "##ails": 4603,
      "morning": 4604,
      "memories": 4605,
      "captured": 4606,
      "results": 4607,
      "gangster": 4608,
      "survive": 4609,
      "santa": 4610,
      "thomas": 4611,
      "pin": 4612,
      "##rays": 4613,
      "##aly": 4614,
      "anton": 4615,
      "manipul": 4616,
      "text": 4617,
      "##soci": 4618,
      "incre": 4619,
      "unfunny": 4620,
      "lacking": 4621,
      "window": 4622,
      "cruel": 4623,
      "cash": 4624,
      "witty": 4625,
      "##ping": 4626,
      "sull": 4627,
      "##elle": 4628,
      "buddy": 4629,
      "murdered": 4630,
      "broken": 4631,
      "loses": 4632,
      "circum": 4633,
      "reaction": 4634,
      "represent": 4635,
      "magnificent": 4636,
      "ordinary": 4637,
      "deg": 4638,
      "bigger": 4639,
      "owner": 4640,
      "remembered": 4641,
      "iron": 4642,
      "regular": 4643,
      "miles": 4644,
      "existence": 4645,
      "vampires": 4646,
      "connection": 4647,
      "sharp": 4648,
      "segment": 4649,
      "traditional": 4650,
      "washington": 4651,
      "mitch": 4652,
      "wat": 4653,
      "##bled": 4654,
      "##bell": 4655,
      "trib": 4656,
      "opens": 4657,
      "leader": 4658,
      "talents": 4659,
      "fairy": 4660,
      "identity": 4661,
      "concerned": 4662,
      "gags": 4663,
      "dimensional": 4664,
      "kenn": 4665,
      "vul": 4666,
      "##oke": 4667,
      "##ilies": 4668,
      "welles": 4669,
      "grown": 4670,
      "gross": 4671,
      "strang": 4672,
      "surreal": 4673,
      "lesson": 4674,
      "streets": 4675,
      "revealed": 4676,
      "bird": 4677,
      "print": 4678,
      "deals": 4679,
      "disp": 4680,
      "calls": 4681,
      "matt": 4682,
      "drew": 4683,
      "study": 4684,
      "driving": 4685,
      "continues": 4686,
      "complain": 4687,
      "##vit": 4688,
      "##asm": 4689,
      "chief": 4690,
      "conce": 4691,
      "howard": 4692,
      "anna": 4693,
      "corny": 4694,
      "cameo": 4695,
      "breaks": 4696,
      "franc": 4697,
      "references": 4698,
      "25": 4699,
      "junk": 4700,
      "kir": 4701,
      "##iles": 4702,
      "##ading": 4703,
      "##oses": 4704,
      "incomp": 4705,
      "kinda": 4706,
      "expert": 4707,
      "distract": 4708,
      "colour": 4709,
      "##olds": 4710,
      "efforts": 4711,
      "lucky": 4712,
      "improv": 4713,
      "received": 4714,
      "occasionally": 4715,
      "spectacular": 4716,
      ");": 4717,
      "cyn": 4718,
      "lor": 4719,
      "ton": 4720,
      "tap": 4721,
      "##stre": 4722,
      "associ": 4723,
      "altern": 4724,
      "comfort": 4725,
      "overly": 4726,
      "##achel": 4727,
      "marry": 4728,
      "corrupt": 4729,
      "hearted": 4730,
      "advice": 4731,
      "humorous": 4732,
      "pleasant": 4733,
      "discovered": 4734,
      "challeng": 4735,
      "rot": 4736,
      "##ront": 4737,
      "##vis": 4738,
      "##ja": 4739,
      "ages": 4740,
      "minim": 4741,
      "edited": 4742,
      "##laim": 4743,
      "african": 4744,
      "shallow": 4745,
      "overlook": 4746,
      "cus": 4747,
      "dar": 4748,
      "goof": 4749,
      "hay": 4750,
      "tack": 4751,
      "##lyn": 4752,
      "allows": 4753,
      "mans": 4754,
      "emer": 4755,
      "joseph": 4756,
      "fict": 4757,
      "fare": 4758,
      "lie": 4759,
      "nich": 4760,
      "wound": 4761,
      "##bling": 4762,
      "brad": 4763,
      "stol": 4764,
      "spoof": 4765,
      "visually": 4766,
      "parker": 4767,
      "logic": 4768,
      "haunting": 4769,
      "current": 4770,
      "dyn": 4771,
      "kong": 4772,
      "##xual": 4773,
      "##sell": 4774,
      "dism": 4775,
      "grim": 4776,
      "reviewer": 4777,
      "failure": 4778,
      "woody": 4779,
      "photograph": 4780,
      "##chester": 4781,
      "naive": 4782,
      "circumst": 4783,
      "gord": 4784,
      "tape": 4785,
      "##lock": 4786,
      "haw": 4787,
      "speech": 4788,
      "mini": 4789,
      "miser": 4790,
      "relief": 4791,
      "sinatra": 4792,
      "versions": 4793,
      "creates": 4794,
      "genuinely": 4795,
      "barbara": 4796,
      "ah": 4797,
      "dry": 4798,
      "loy": 4799,
      "lake": 4800,
      "pitch": 4801,
      "##val": 4802,
      "##ii": 4803,
      "unable": 4804,
      "decision": 4805,
      "parody": 4806,
      "command": 4807,
      "brilliantly": 4808,
      "##porary": 4809,
      "##natural": 4810,
      "cant": 4811,
      "ruth": 4812,
      "##ita": 4813,
      "inex": 4814,
      "##uls": 4815,
      "##thy": 4816,
      "evening": 4817,
      "advert": 4818,
      "obsc": 4819,
      "##away": 4820,
      "types": 4821,
      "seasons": 4822,
      "comparison": 4823,
      "fish": 4824,
      "##ya": 4825,
      "sheer": 4826,
      "endless": 4827,
      "##anned": 4828,
      "batt": 4829,
      "report": 4830,
      "meeting": 4831,
      "essentially": 4832,
      "foreign": 4833,
      "cindere": 4834,
      "##ilog": 4835,
      "intention": 4836,
      "##agers": 4837,
      "proved": 4838,
      "switch": 4839,
      "village": 4840,
      "learned": 4841,
      "treatment": 4842,
      "suffering": 4843,
      "irritating": 4844,
      "hitchcock": 4845,
      "gratuit": 4846,
      "philosoph": 4847,
      "counter": 4848,
      "hood": 4849,
      "hung": 4850,
      "nav": 4851,
      "##sen": 4852,
      "##aire": 4853,
      "##down": 4854,
      "##cient": 4855,
      "awards": 4856,
      "##anged": 4857,
      "attitude": 4858,
      "##gged": 4859,
      "mrs": 4860,
      "grew": 4861,
      "gory": 4862,
      "pity": 4863,
      "##nie": 4864,
      "##night": 4865,
      "##cious": 4866,
      "##iling": 4867,
      "chan": 4868,
      "envir": 4869,
      "clark": 4870,
      "tex": 4871,
      "winner": 4872,
      "center": 4873,
      "hunter": 4874,
      "ultimate": 4875,
      "religion": 4876,
      "broadway": 4877,
      "graphic": 4878,
      "cinderella": 4879,
      "code": 4880,
      "obl": 4881,
      "meanwhile": 4882,
      "discovers": 4883,
      "encounter": 4884,
      "subtit": 4885,
      "freedom": 4886,
      "tas": 4887,
      "send": 4888,
      "families": 4889,
      "entertained": 4890,
      "majority": 4891,
      "sucked": 4892,
      "authent": 4893,
      "visuals": 4894,
      "moore": 4895,
      "emotionally": 4896,
      "nancy": 4897,
      "inh": 4898,
      "sha": 4899,
      "heck": 4900,
      "##usive": 4901,
      "##theless": 4902,
      "##teen": 4903,
      "nevertheless": 4904,
      "decade": 4905,
      "##ashed": 4906,
      "laughter": 4907,
      "built": 4908,
      "levels": 4909,
      "delivered": 4910,
      "combination": 4911,
      "hallow": 4912,
      "exploitation": 4913,
      "sacrif": 4914,
      "##mes": 4915,
      "##gm": 4916,
      "shut": 4917,
      "france": 4918,
      "necess": 4919,
      "##ourne": 4920,
      "experien": 4921,
      "technology": 4922,
      "erotic": 4923,
      "stereotypes": 4924,
      "vehicle": 4925,
      "gratuitous": 4926,
      "environ": 4927,
      "aid": 4928,
      "mort": 4929,
      "von": 4930,
      "##lo": 4931,
      "consequ": 4932,
      "wrest": 4933,
      "produce": 4934,
      "anime": 4935,
      "costs": 4936,
      "silver": 4937,
      "ignor": 4938,
      "rules": 4939,
      "##ville": 4940,
      "##zo": 4941,
      "##cra": 4942,
      "##icit": 4943,
      "shr": 4944,
      "champ": 4945,
      "convey": 4946,
      "##ums": 4947,
      "uncom": 4948,
      "admir": 4949,
      "breaking": 4950,
      "victoria": 4951,
      "fortun": 4952,
      "practically": 4953,
      "cowboy": 4954,
      "flashbacks": 4955,
      "fame": 4956,
      "lud": 4957,
      "##rant": 4958,
      "##iser": 4959,
      "/>*": 4960,
      "##hern": 4961,
      "feet": 4962,
      "flor": 4963,
      "##ugos": 4964,
      "passed": 4965,
      "louis": 4966,
      "frankly": 4967,
      "obsessed": 4968,
      "walter": 4969,
      "amateurish": 4970,
      "pitt": 4971,
      "ward": 4972,
      "beach": 4973,
      "##oster": 4974,
      "blow": 4975,
      "generation": 4976,
      "swim": 4977,
      "jackie": 4978,
      "driven": 4979,
      "ruined": 4980,
      "handsome": 4981,
      "germany": 4982,
      "sports": 4983,
      "gordon": 4984,
      "mic": 4985,
      "site": 4986,
      "##dom": 4987,
      "##erie": 4988,
      "##kend": 4989,
      "neat": 4990,
      "sake": 4991,
      "aged": 4992,
      "glass": 4993,
      "meth": 4994,
      "sympathetic": 4995,
      "inept": 4996,
      "sheriff": 4997,
      "dreadful": 4998,
      "16": 4999,
      "link": 5000,
      "viet": 5001,
      "cares": 5002,
      "##ques": 5003,
      "matters": 5004,
      "painfully": 5005,
      "rescue": 5006,
      "contrived": 5007,
      "gonna": 5008,
      "raw": 5009,
      "ya": 5010,
      "##ss": 5011,
      "revel": 5012,
      "shel": 5013,
      "quir": 5014,
      "underrated": 5015,
      "controvers": 5016,
      "caused": 5017,
      "inevit": 5018,
      "assume": 5019,
      "blockb": 5020,
      "##stream": 5021,
      "authentic": 5022,
      "bern": 5023,
      "rise": 5024,
      "##cies": 5025,
      "##ndy": 5026,
      "inner": 5027,
      "##lend": 5028,
      "##udd": 5029,
      "classics": 5030,
      "expression": 5031,
      "service": 5032,
      "unrealistic": 5033,
      "dynam": 5034,
      "uk": 5035,
      "##vy": 5036,
      "##win": 5037,
      "##__": 5038,
      "##usi": 5039,
      "##ument": 5040,
      "##fornia": 5041,
      "killers": 5042,
      "believes": 5043,
      "extras": 5044,
      "refres": 5045,
      "##whel": 5046,
      "hunt": 5047,
      "training": 5048,
      "embarrassing": 5049,
      "described": 5050,
      "dubbed": 5051,
      "protagonist": 5052,
      "halloween": 5053,
      "kung": 5054,
      "range": 5055,
      "sne": 5056,
      "##ault": 5057,
      "##mo": 5058,
      "hearing": 5059,
      "unfor": 5060,
      "carp": 5061,
      "dropp": 5062,
      "incident": 5063,
      "---": 5064,
      "relate": 5065,
      "sequels": 5066,
      "powell": 5067,
      "excit": 5068,
      "strongly": 5069,
      "theaters": 5070,
      "professor": 5071,
      "nominated": 5072,
      "ryan": 5073,
      "##nal": 5074,
      "asian": 5075,
      "ancient": 5076,
      "##ama": 5077,
      "guard": 5078,
      "grab": 5079,
      "talks": 5080,
      "excited": 5081,
      "barry": 5082,
      "popul": 5083,
      "uninter": 5084,
      "lum": 5085,
      "anderson": 5086,
      "##stick": 5087,
      "ende": 5088,
      "evidence": 5089,
      "minds": 5090,
      "propag": 5091,
      "inspir": 5092,
      "executed": 5093,
      "lesbian": 5094,
      "shadow": 5095,
      "saturday": 5096,
      "refreshing": 5097,
      "om": 5098,
      "row": 5099,
      "tiny": 5100,
      "vinc": 5101,
      "wre": 5102,
      "##iled": 5103,
      "##chan": 5104,
      "chair": 5105,
      "frustr": 5106,
      "prior": 5107,
      "proud": 5108,
      "portrays": 5109,
      "creatures": 5110,
      "\").": 5111,
      "theatrical": 5112,
      "depressing": 5113,
      "ba": 5114,
      "dud": 5115,
      "native": 5116,
      "##ez": 5117,
      "##ients": 5118,
      "##uther": 5119,
      "asking": 5120,
      "##aming": 5121,
      "myth": 5122,
      "knight": 5123,
      "preach": 5124,
      "appropriate": 5125,
      "crappy": 5126,
      "capital": 5127,
      "extraord": 5128,
      "baseball": 5129,
      "relatively": 5130,
      "lousy": 5131,
      "##gue": 5132,
      "##hi": 5133,
      "##aded": 5134,
      "choose": 5135,
      "##osen": 5136,
      "##acing": 5137,
      "compos": 5138,
      "cutting": 5139,
      "harm": 5140,
      "football": 5141,
      "capable": 5142,
      "largely": 5143,
      "##writer": 5144,
      "17": 5145,
      "jung": 5146,
      "lau": 5147,
      "vague": 5148,
      "##rix": 5149,
      "##abeth": 5150,
      "trilog": 5151,
      "clar": 5152,
      "##phy": 5153,
      "distrib": 5154,
      "criticism": 5155,
      "false": 5156,
      "intellectual": 5157,
      "circumstances": 5158,
      "excitement": 5159,
      "):": 5160,
      "bodies": 5161,
      "oli": 5162,
      "offe": 5163,
      "clue": 5164,
      "horribly": 5165,
      "thoughts": 5166,
      "involves": 5167,
      "stopped": 5168,
      "learns": 5169,
      "##ipping": 5170,
      "africa": 5171,
      "universal": 5172,
      "francis": 5173,
      "fictional": 5174,
      "environment": 5175,
      "oliver": 5176,
      "bik": 5177,
      "nu": 5178,
      "nut": 5179,
      "sout": 5180,
      "vote": 5181,
      "##bur": 5182,
      "##pir": 5183,
      "beast": 5184,
      "prost": 5185,
      "doom": 5186,
      "united": 5187,
      "wayne": 5188,
      "drop": 5189,
      "believed": 5190,
      "handed": 5191,
      "patrick": 5192,
      "expos": 5193,
      "karl": 5194,
      "voices": 5195,
      "australian": 5196,
      "russell": 5197,
      ",'": 5198,
      "cit": 5199,
      "fix": 5200,
      "harsh": 5201,
      "##cul": 5202,
      "##isher": 5203,
      "##leep": 5204,
      "forth": 5205,
      "asleep": 5206,
      "chosen": 5207,
      "invent": 5208,
      "sitcom": 5209,
      "purch": 5210,
      "execut": 5211,
      "tedious": 5212,
      "substance": 5213,
      "canadian": 5214,
      "enthusi": 5215,
      "cub": 5216,
      "cooper": 5217,
      "pile": 5218,
      "##oman": 5219,
      "hopefully": 5220,
      "wins": 5221,
      "unlikely": 5222,
      "designed": 5223,
      "satisfying": 5224,
      "gentle": 5225,
      "source": 5226,
      "welcome": 5227,
      "category": 5228,
      "structure": 5229,
      "nichol": 5230,
      "nation": 5231,
      "rough": 5232,
      "rival": 5233,
      "##walk": 5234,
      "##cher": 5235,
      "sole": 5236,
      "exagger": 5237,
      "faced": 5238,
      "##osexual": 5239,
      "yell": 5240,
      "emph": 5241,
      "##ugs": 5242,
      "maintain": 5243,
      "rental": 5244,
      "holding": 5245,
      "bringing": 5246,
      "descript": 5247,
      "idiot": 5248,
      "method": 5249,
      "bore": 5250,
      "gand": 5251,
      "lem": 5252,
      "pier": 5253,
      "movement": 5254,
      "##eston": 5255,
      "alco": 5256,
      "##aken": 5257,
      "cliff": 5258,
      "spr": 5259,
      "ade": 5260,
      "agre": 5261,
      "192": 5262,
      "warn": 5263,
      "polic": 5264,
      "restr": 5265,
      "provided": 5266,
      "irish": 5267,
      "walks": 5268,
      "!!!!": 5269,
      "cartoons": 5270,
      "costume": 5271,
      "mask": 5272,
      "haunted": 5273,
      "weekend": 5274,
      "initial": 5275,
      "veteran": 5276,
      "trilogy": 5277,
      "ken": 5278,
      "##cent": 5279,
      "tow": 5280,
      "prime": 5281,
      "plans": 5282,
      "emma": 5283,
      "factor": 5284,
      "presents": 5285,
      "murphy": 5286,
      "lower": 5287,
      "unfortunate": 5288,
      "teenagers": 5289,
      "convinced": 5290,
      "covered": 5291,
      "losing": 5292,
      "depicted": 5293,
      "disgusting": 5294,
      "fits": 5295,
      "##ndam": 5296,
      "inj": 5297,
      "reject": 5298,
      "scale": 5299,
      "dece": 5300,
      "##ighter": 5301,
      "eliz": 5302,
      "steals": 5303,
      "provo": 5304,
      "involve": 5305,
      "portraying": 5306,
      "teenager": 5307,
      "shocked": 5308,
      "forgettable": 5309,
      "pacino": 5310,
      "dinos": 5311,
      "dragon": 5312,
      "qualities": 5313,
      "jay": 5314,
      "pit": 5315,
      "till": 5316,
      "##ivan": 5317,
      "viewed": 5318,
      "facts": 5319,
      "invis": 5320,
      "commit": 5321,
      "presum": 5322,
      "deaths": 5323,
      "experiment": 5324,
      "excess": 5325,
      "appealing": 5326,
      "hanging": 5327,
      "routine": 5328,
      "wilson": 5329,
      "mum": 5330,
      "mgm": 5331,
      "ske": 5332,
      "##aver": 5333,
      "forest": 5334,
      "section": 5335,
      "notch": 5336,
      "##abe": 5337,
      "teens": 5338,
      "offensive": 5339,
      "carol": 5340,
      "makeup": 5341,
      "ideal": 5342,
      "robot": 5343,
      "colon": 5344,
      "treasure": 5345,
      "promising": 5346,
      "politics": 5347,
      "landsc": 5348,
      "mistakes": 5349,
      "##anagh": 5350,
      "accidentally": 5351,
      "multiple": 5352,
      "columbo": 5353,
      "citiz": 5354,
      "bush": 5355,
      "kath": 5356,
      "##point": 5357,
      "##atically": 5358,
      "##oooo": 5359,
      "outs": 5360,
      "spy": 5361,
      "##ached": 5362,
      "subpl": 5363,
      "handled": 5364,
      "schem": 5365,
      "glob": 5366,
      "captures": 5367,
      "semi": 5368,
      "contemporary": 5369,
      "degree": 5370,
      "texas": 5371,
      "jail": 5372,
      "mst": 5373,
      "nost": 5374,
      "##wy": 5375,
      "butt": 5376,
      "particip": 5377,
      "spell": 5378,
      "contact": 5379,
      "mainstream": 5380,
      "supernatural": 5381,
      "colors": 5382,
      "walked": 5383,
      "reput": 5384,
      "reporter": 5385,
      "ruin": 5386,
      "virtually": 5387,
      "ludic": 5388,
      "propaganda": 5389,
      "whe": 5390,
      "storm": 5391,
      "##cks": 5392,
      "outrage": 5393,
      "enemy": 5394,
      "hoff": 5395,
      "acqu": 5396,
      "freeman": 5397,
      "##heart": 5398,
      "suffers": 5399,
      "mirac": 5400,
      "continuity": 5401,
      "##och": 5402,
      "##ket": 5403,
      "##reh": 5404,
      "##rell": 5405,
      "bros": 5406,
      "##imate": 5407,
      "wear": 5408,
      "##ache": 5409,
      "remin": 5410,
      "assass": 5411,
      "painting": 5412,
      "magical": 5413,
      "universe": 5414,
      "closer": 5415,
      "influence": 5416,
      "loyal": 5417,
      "jaw": 5418,
      "##nn": 5419,
      "##arian": 5420,
      "##reg": 5421,
      "##ali": 5422,
      "height": 5423,
      "friday": 5424,
      "bett": 5425,
      "pregn": 5426,
      "appl": 5427,
      "edward": 5428,
      "##apping": 5429,
      "worthwhile": 5430,
      "grave": 5431,
      "touches": 5432,
      "convince": 5433,
      "claims": 5434,
      "sullivan": 5435,
      "lol": 5436,
      "##eg": 5437,
      "##bed": 5438,
      "##uel": 5439,
      "storyte": 5440,
      "flo": 5441,
      "warri": 5442,
      "accomp": 5443,
      "experiences": 5444,
      "transform": 5445,
      "benef": 5446,
      "speaks": 5447,
      "dogs": 5448,
      "appreciated": 5449,
      "princess": 5450,
      "##oppy": 5451,
      "liners": 5452,
      "unconvin": 5453,
      "uninteresting": 5454,
      "##acc": 5455,
      "##iat": 5456,
      "ree": 5457,
      "chose": 5458,
      "##raction": 5459,
      "blah": 5460,
      "diss": 5461,
      "##formed": 5462,
      "guil": 5463,
      "accents": 5464,
      "explor": 5465,
      "angles": 5466,
      "curt": 5467,
      "promise": 5468,
      "burns": 5469,
      "granted": 5470,
      "roger": 5471,
      "sisters": 5472,
      "stolen": 5473,
      "hoffman": 5474,
      "accompan": 5475,
      "aka": 5476,
      "gain": 5477,
      "hip": 5478,
      "mock": 5479,
      "ped": 5480,
      "##chy": 5481,
      "##alling": 5482,
      "flight": 5483,
      "performed": 5484,
      "bitter": 5485,
      "deadly": 5486,
      "paint": 5487,
      "demons": 5488,
      "previously": 5489,
      "aliens": 5490,
      "dent": 5491,
      "foster": 5492,
      "rings": 5493,
      "sink": 5494,
      "torn": 5495,
      "wing": 5496,
      "##don": 5497,
      "##),": 5498,
      "health": 5499,
      "##ura": 5500,
      "spark": 5501,
      "spends": 5502,
      "evol": 5503,
      "roman": 5504,
      "figures": 5505,
      "lawyer": 5506,
      "focused": 5507,
      "frightening": 5508,
      "emphas": 5509,
      "ded": 5510,
      "dub": 5511,
      "kore": 5512,
      "##cl": 5513,
      "##etime": 5514,
      "feed": 5515,
      "##icked": 5516,
      "overd": 5517,
      "poign": 5518,
      "realizes": 5519,
      "serves": 5520,
      "##athan": 5521,
      "security": 5522,
      "superf": 5523,
      "surprises": 5524,
      "hugh": 5525,
      "adventures": 5526,
      "department": 5527,
      "##ausible": 5528,
      "jungle": 5529,
      "bbc": 5530,
      "cul": 5531,
      "table": 5532,
      "overwhel": 5533,
      "everywhere": 5534,
      "related": 5535,
      "hardy": 5536,
      "explains": 5537,
      "committed": 5538,
      "featured": 5539,
      "suffer": 5540,
      "dollars": 5541,
      "faithful": 5542,
      "legendary": 5543,
      "sunday": 5544,
      "dust": 5545,
      "lugos": 5546,
      "thumb": 5547,
      "##aling": 5548,
      "whoever": 5549,
      "abuse": 5550,
      "spite": 5551,
      "guest": 5552,
      "root": 5553,
      "friendly": 5554,
      "addict": 5555,
      "##umbling": 5556,
      "courage": 5557,
      "cannib": 5558,
      "narration": 5559,
      "sensitive": 5560,
      "struggling": 5561,
      "sympathy": 5562,
      "urban": 5563,
      "surface": 5564,
      "dozen": 5565,
      "reputation": 5566,
      "lugosi": 5567,
      ")<": 5568,
      "cock": 5569,
      "eld": 5570,
      "jam": 5571,
      "##uced": 5572,
      "##yle": 5573,
      "##lying": 5574,
      "##ada": 5575,
      "aftern": 5576,
      "johnson": 5577,
      "titanic": 5578,
      "honor": 5579,
      "metal": 5580,
      "clichéd": 5581,
      "execution": 5582,
      "statement": 5583,
      "weeks": 5584,
      "demonstr": 5585,
      "conversation": 5586,
      "guilty": 5587,
      "60s": 5588,
      "ara": 5589,
      "coun": 5590,
      "caine": 5591,
      "gad": 5592,
      "##bit": 5593,
      "##mother": 5594,
      "##pre": 5595,
      "unbe": 5596,
      "directly": 5597,
      "gritty": 5598,
      "##aughters": 5599,
      "contract": 5600,
      "corpor": 5601,
      "tales": 5602,
      "sorts": 5603,
      "admitted": 5604,
      "rule": 5605,
      "occasional": 5606,
      "abandoned": 5607,
      "vietnam": 5608,
      "gill": 5609,
      "lisa": 5610,
      "nude": 5611,
      "sen": 5612,
      "shark": 5613,
      "atl": 5614,
      "worry": 5615,
      "charl": 5616,
      "blown": 5617,
      "crude": 5618,
      "border": 5619,
      "effectively": 5620,
      "artists": 5621,
      "mature": 5622,
      "concent": 5623,
      "femin": 5624,
      "combined": 5625,
      "latest": 5626,
      "lonely": 5627,
      "prostit": 5628,
      "cel": 5629,
      "goth": 5630,
      "hipp": 5631,
      "sag": 5632,
      "##kins": 5633,
      "##mond": 5634,
      "##lim": 5635,
      "seag": 5636,
      "placed": 5637,
      "##iger": 5638,
      "downright": 5639,
      "term": 5640,
      "inspect": 5641,
      "confront": 5642,
      "darkness": 5643,
      "amazed": 5644,
      "driver": 5645,
      "grey": 5646,
      "technically": 5647,
      "massive": 5648,
      "melodrama": 5649,
      "atrocious": 5650,
      "aunt": 5651,
      "rang": 5652,
      "##dies": 5653,
      "toy": 5654,
      "arms": 5655,
      "scenario": 5656,
      "kinds": 5657,
      "midnight": 5658,
      "favorites": 5659,
      "jeal": 5660,
      "variety": 5661,
      "\"),": 5662,
      "bothered": 5663,
      "network": 5664,
      "remotely": 5665,
      "nazi": 5666,
      "significant": 5667,
      "invisible": 5668,
      "hired": 5669,
      "lion": 5670,
      "rush": 5671,
      "tong": 5672,
      "##cr": 5673,
      "toler": 5674,
      "ing": 5675,
      "branagh": 5676,
      "##tered": 5677,
      "alice": 5678,
      "doc": 5679,
      "##ppet": 5680,
      "outf": 5681,
      "meat": 5682,
      "cheese": 5683,
      "buying": 5684,
      "format": 5685,
      "truck": 5686,
      "tremend": 5687,
      "!),": 5688,
      "changing": 5689,
      "complicated": 5690,
      "hammer": 5691,
      "encou": 5692,
      "upset": 5693,
      "understood": 5694,
      "unconvincing": 5695,
      "cy": 5696,
      "cous": 5697,
      "tax": 5698,
      "##ares": 5699,
      "stom": 5700,
      "spring": 5701,
      "strict": 5702,
      "views": 5703,
      "rights": 5704,
      "matrix": 5705,
      "captiv": 5706,
      "profound": 5707,
      "fourth": 5708,
      "position": 5709,
      "suspenseful": 5710,
      "twisted": 5711,
      "surviv": 5712,
      "fabulous": 5713,
      "blockbuster": 5714,
      "\"?": 5715,
      "eve": 5716,
      "gather": 5717,
      "pul": 5718,
      "pig": 5719,
      "push": 5720,
      "rick": 5721,
      "intens": 5722,
      "teeth": 5723,
      "offered": 5724,
      "##tended": 5725,
      "jobs": 5726,
      "imagery": 5727,
      "stylish": 5728,
      "studios": 5729,
      "angle": 5730,
      "passing": 5731,
      "campy": 5732,
      "##belief": 5733,
      "rolling": 5734,
      "starred": 5735,
      "franch": 5736,
      "destroyed": 5737,
      "california": 5738,
      "subtitles": 5739,
      "afternoon": 5740,
      "daughters": 5741,
      "fed": 5742,
      "lon": 5743,
      "ze": 5744,
      "##ship": 5745,
      "##nda": 5746,
      "##enced": 5747,
      "beck": 5748,
      "crying": 5749,
      "maker": 5750,
      "grin": 5751,
      "grues": 5752,
      "consum": 5753,
      "irre": 5754,
      "figured": 5755,
      "renting": 5756,
      "focuses": 5757,
      "julia": 5758,
      "recognize": 5759,
      "sarah": 5760,
      "boot": 5761,
      "cust": 5762,
      "dump": 5763,
      "mol": 5764,
      "nom": 5765,
      "##zel": 5766,
      "plant": 5767,
      "lear": 5768,
      "splend": 5769,
      "donald": 5770,
      "happiness": 5771,
      "1980": 5772,
      "1950": 5773,
      "desperately": 5774,
      "experienced": 5775,
      "bul": 5776,
      "##bing": 5777,
      "##atives": 5778,
      "notorious": 5779,
      "seek": 5780,
      "address": 5781,
      "critical": 5782,
      "musicals": 5783,
      "stayed": 5784,
      "delivery": 5785,
      "strip": 5786,
      "ghosts": 5787,
      "journal": 5788,
      "status": 5789,
      "lifetime": 5790,
      "breatht": 5791,
      "mildly": 5792,
      "divor": 5793,
      "elizabeth": 5794,
      "gall": 5795,
      "rank": 5796,
      "tree": 5797,
      "wand": 5798,
      "theory": 5799,
      "stays": 5800,
      "##amor": 5801,
      "chilling": 5802,
      "league": 5803,
      "...\"": 5804,
      "disbelief": 5805,
      "warner": 5806,
      "corner": 5807,
      "susan": 5808,
      "murderer": 5809,
      "demand": 5810,
      "cultural": 5811,
      "metaph": 5812,
      "thankfully": 5813,
      "scares": 5814,
      "required": 5815,
      "necessarily": 5816,
      "nostal": 5817,
      "pian": 5818,
      "tag": 5819,
      "##mate": 5820,
      "##ari": 5821,
      "##stone": 5822,
      "reb": 5823,
      "##ida": 5824,
      "china": 5825,
      "alright": 5826,
      "dean": 5827,
      "##outs": 5828,
      "greater": 5829,
      "facial": 5830,
      "beloved": 5831,
      "trapped": 5832,
      "screening": 5833,
      "headed": 5834,
      "iran": 5835,
      "##ennis": 5836,
      ".)<": 5837,
      "pulls": 5838,
      "homosexual": 5839,
      "mirror": 5840,
      "smooth": 5841,
      "productions": 5842,
      "mexico": 5843,
      "matthau": 5844,
      "praise": 5845,
      "bettie": 5846,
      "gruesome": 5847,
      "ned": 5848,
      "rachel": 5849,
      "##itious": 5850,
      "noble": 5851,
      "peck": 5852,
      "throws": 5853,
      "disag": 5854,
      "decades": 5855,
      "india": 5856,
      "subsequ": 5857,
      "titles": 5858,
      "swed": 5859,
      "severe": 5860,
      "magaz": 5861,
      "listening": 5862,
      "massac": 5863,
      "integr": 5864,
      "prepared": 5865,
      "mexican": 5866,
      "stomach": 5867,
      "fid": 5868,
      "math": 5869,
      "via": 5870,
      "##rend": 5871,
      "braz": 5872,
      "cha": 5873,
      "libr": 5874,
      "timing": 5875,
      "indul": 5876,
      "minded": 5877,
      "anger": 5878,
      "sleeping": 5879,
      "closing": 5880,
      "drinking": 5881,
      "description": 5882,
      "ludicrous": 5883,
      ":)": 5884,
      "dal": 5885,
      "lust": 5886,
      "##sky": 5887,
      "##burn": 5888,
      "isol": 5889,
      "##ety": 5890,
      "deeper": 5891,
      "shell": 5892,
      "argu": 5893,
      "lights": 5894,
      "examples": 5895,
      "michelle": 5896,
      "device": 5897,
      "personalities": 5898,
      "answers": 5899,
      "ignore": 5900,
      "turkey": 5901,
      "weapon": 5902,
      "princip": 5903,
      "reminisc": 5904,
      "ain": 5905,
      "bol": 5906,
      "fay": 5907,
      "si": 5908,
      "shape": 5909,
      "unh": 5910,
      "spiel": 5911,
      "cring": 5912,
      "carried": 5913,
      "guar": 5914,
      "workers": 5915,
      "calling": 5916,
      "extent": 5917,
      "raise": 5918,
      "larry": 5919,
      "##ission": 5920,
      "paying": 5921,
      "stunt": 5922,
      "settings": 5923,
      "heavily": 5924,
      "initially": 5925,
      "oliv": 5926,
      "sidney": 5927,
      "catholic": 5928,
      "vincent": 5929,
      "mst3": 5930,
      "##wyck": 5931,
      "seagal": 5932,
      "bang": 5933,
      "dude": 5934,
      "wave": 5935,
      "##gas": 5936,
      "##ila": 5937,
      "sevent": 5938,
      "lift": 5939,
      "diam": 5940,
      "tear": 5941,
      "##atherine": 5942,
      "indie": 5943,
      "hole": 5944,
      "install": 5945,
      "sounded": 5946,
      "distinct": 5947,
      "advant": 5948,
      "2006": 5949,
      "anticip": 5950,
      "daily": 5951,
      "holmes": 5952,
      "stanley": 5953,
      "autom": 5954,
      "crafted": 5955,
      "cabin": 5956,
      "brooks": 5957,
      "kurt": 5958,
      "quirky": 5959,
      "pregnant": 5960,
      "gadget": 5961,
      "reminiscent": 5962,
      "fo": 5963,
      "fel": 5964,
      "mouse": 5965,
      "vent": 5966,
      "voy": 5967,
      "##nox": 5968,
      "##lon": 5969,
      "##eral": 5970,
      "reed": 5971,
      "notable": 5972,
      "alas": 5973,
      "comical": 5974,
      "##oln": 5975,
      "##ushing": 5976,
      "throwing": 5977,
      "incor": 5978,
      "obnox": 5979,
      "attacked": 5980,
      "criminals": 5981,
      "vacation": 5982,
      "carpent": 5983,
      "inspector": 5984,
      "ell": 5985,
      "hind": 5986,
      "hong": 5987,
      "linc": 5988,
      "sides": 5989,
      "vast": 5990,
      "##ule": 5991,
      "##icial": 5992,
      "##ales": 5993,
      "##ader": 5994,
      "outd": 5995,
      "serve": 5996,
      "##beat": 5997,
      "cheer": 5998,
      "originality": 5999,
      "assign": 6000,
      "ratings": 6001,
      "sandler": 6002,
      "funnier": 6003,
      "stanwyck": 6004,
      "succeeds": 6005,
      "locked": 6006,
      "sophistic": 6007,
      "slapstick": 6008,
      "choices": 6009,
      "jessica": 6010,
      "extraordinary": 6011,
      "provoking": 6012,
      "doo": 6013,
      "gab": 6014,
      "lazy": 6015,
      "pool": 6016,
      "tempt": 6017,
      "vivid": 6018,
      "##tt": 6019,
      "attend": 6020,
      "arn": 6021,
      "shower": 6022,
      "blat": 6023,
      "##plays": 6024,
      "##ianc": 6025,
      "resist": 6026,
      "miscast": 6027,
      "warned": 6028,
      "helping": 6029,
      "elev": 6030,
      "##gging": 6031,
      "deliber": 6032,
      "touched": 6033,
      "steps": 6034,
      "mentally": 6035,
      "frequently": 6036,
      "determined": 6037,
      "navy": 6038,
      "lincoln": 6039,
      "pad": 6040,
      "ric": 6041,
      "suther": 6042,
      "wra": 6043,
      "/>(": 6044,
      "##ching": 6045,
      "web": 6046,
      "charge": 6047,
      "##aker": 6048,
      "everyday": 6049,
      "maria": 6050,
      "##ibilities": 6051,
      "access": 6052,
      "portra": 6053,
      "halfway": 6054,
      "depiction": 6055,
      "2000": 6056,
      "busy": 6057,
      "broke": 6058,
      "miller": 6059,
      "reveals": 6060,
      "leslie": 6061,
      "arrives": 6062,
      "jewish": 6063,
      "summary": 6064,
      "##semble": 6065,
      "southern": 6066,
      "sutherland": 6067,
      "hence": 6068,
      "pound": 6069,
      "##kh": 6070,
      "##gia": 6071,
      "##enge": 6072,
      "reward": 6073,
      "pros": 6074,
      "##uman": 6075,
      "##umph": 6076,
      "caring": 6077,
      "underground": 6078,
      "contest": 6079,
      "basis": 6080,
      "craw": 6081,
      "handle": 6082,
      "adding": 6083,
      "angels": 6084,
      "psychiat": 6085,
      "successfully": 6086,
      "sleazy": 6087,
      "claire": 6088,
      "amongst": 6089,
      "philip": 6090,
      "escapes": 6091,
      "racist": 6092,
      "weapons": 6093,
      "##iveness": 6094,
      "marvelous": 6095,
      "task": 6096,
      "storytelling": 6097,
      "bourne": 6098,
      "cave": 6099,
      "hob": 6100,
      "py": 6101,
      "ral": 6102,
      "##aves": 6103,
      "##case": 6104,
      "##ffe": 6105,
      "stell": 6106,
      "dol": 6107,
      "unins": 6108,
      "intentions": 6109,
      "clock": 6110,
      "overact": 6111,
      "flav": 6112,
      "##reek": 6113,
      "raised": 6114,
      "patient": 6115,
      "picks": 6116,
      "sentimental": 6117,
      "oddly": 6118,
      "atmospher": 6119,
      "regarding": 6120,
      "properly": 6121,
      "graphics": 6122,
      "ashamed": 6123,
      "inhab": 6124,
      "controversial": 6125,
      "learning": 6126,
      "spielberg": 6127,
      "etern": 6128,
      "lane": 6129,
      "##pire": 6130,
      "thunder": 6131,
      "cher": 6132,
      "alb": 6133,
      "alle": 6134,
      "##ishes": 6135,
      "join": 6136,
      "slaughter": 6137,
      "misf": 6138,
      "triumph": 6139,
      "coinc": 6140,
      "confusion": 6141,
      "fallen": 6142,
      "lucy": 6143,
      "retarded": 6144,
      "madness": 6145,
      "immense": 6146,
      "essential": 6147,
      "carrying": 6148,
      "wwii": 6149,
      "brando": 6150,
      "mansion": 6151,
      "breathtaking": 6152,
      "obnoxious": 6153,
      "uninsp": 6154,
      "cob": 6155,
      "lit": 6156,
      "las": 6157,
      "wolf": 6158,
      "wanna": 6159,
      "##mates": 6160,
      "thief": 6161,
      "##ower": 6162,
      "##adays": 6163,
      "wears": 6164,
      "exh": 6165,
      "nel": 6166,
      "##oyd": 6167,
      "nowadays": 6168,
      "comedian": 6169,
      "absor": 6170,
      "possess": 6171,
      "attempting": 6172,
      "geor": 6173,
      "novels": 6174,
      "2001": 6175,
      "occup": 6176,
      "strangely": 6177,
      "1970": 6178,
      "westerns": 6179,
      "dawn": 6180,
      "interviews": 6181,
      "fulf": 6182,
      "goofy": 6183,
      "uncomfort": 6184,
      "inspiration": 6185,
      "carpenter": 6186,
      "hick": 6187,
      "ira": 6188,
      "##enom": 6189,
      "##asant": 6190,
      "overcome": 6191,
      "adop": 6192,
      "disgu": 6193,
      "gro": 6194,
      "##ifies": 6195,
      "elvir": 6196,
      "amazingly": 6197,
      "!!!!!": 6198,
      "construct": 6199,
      "flawed": 6200,
      "italy": 6201,
      "purely": 6202,
      "dollar": 6203,
      "suspects": 6204,
      "balance": 6205,
      "horrific": 6206,
      "established": 6207,
      "crisis": 6208,
      "mst3k": 6209,
      "''": 6210,
      "bac": 6211,
      "dere": 6212,
      "iv": 6213,
      "rum": 6214,
      "##ils": 6215,
      "forbid": 6216,
      "##ouses": 6217,
      "manh": 6218,
      "betray": 6219,
      "needless": 6220,
      "refuses": 6221,
      "existent": 6222,
      "obser": 6223,
      "1950s": 6224,
      "condition": 6225,
      "broadcast": 6226,
      "internet": 6227,
      "stereotypical": 6228,
      "rogers": 6229,
      "challenge": 6230,
      "andrews": 6231,
      "interpretation": 6232,
      "wreck": 6233,
      "intensity": 6234,
      "diamond": 6235,
      "elvira": 6236,
      "dennis": 6237,
      "kud": 6238,
      "penn": 6239,
      "##hh": 6240,
      "##fia": 6241,
      "##ée": 6242,
      "##erc": 6243,
      "##orig": 6244,
      "##order": 6245,
      "spook": 6246,
      "croc": 6247,
      "horrend": 6248,
      "enjoying": 6249,
      "relax": 6250,
      "instinct": 6251,
      "conspir": 6252,
      "lesser": 6253,
      "lessons": 6254,
      "announ": 6255,
      "infam": 6256,
      "noneth": 6257,
      "causes": 6258,
      "revolves": 6259,
      "convict": 6260,
      "embarrassed": 6261,
      "dinner": 6262,
      "##attan": 6263,
      "neighborhood": 6264,
      "imaginative": 6265,
      "fortunately": 6266,
      "brazil": 6267,
      "bart": 6268,
      "barr": 6269,
      "nol": 6270,
      "nine": 6271,
      "##hay": 6272,
      "##ament": 6273,
      "dign": 6274,
      "unre": 6275,
      "trite": 6276,
      "blank": 6277,
      "##plic": 6278,
      "##tending": 6279,
      "inco": 6280,
      "decl": 6281,
      "tracy": 6282,
      "phenom": 6283,
      "screenwriter": 6284,
      "spoken": 6285,
      "##iffer": 6286,
      "##shi": 6287,
      "terrifying": 6288,
      "ralph": 6289,
      "nonetheless": 6290,
      "gut": 6291,
      "hud": 6292,
      "tab": 6293,
      "upper": 6294,
      "##rie": 6295,
      "##ught": 6296,
      "##iques": 6297,
      "andre": 6298,
      "##ston": 6299,
      "exists": 6300,
      "neck": 6301,
      "ensemble": 6302,
      "##ago": 6303,
      "firm": 6304,
      "dislike": 6305,
      "preview": 6306,
      "carries": 6307,
      "traum": 6308,
      "phill": 6309,
      "letter": 6310,
      "redempt": 6311,
      "##ception": 6312,
      "drives": 6313,
      "##ologist": 6314,
      "repet": 6315,
      "manager": 6316,
      "attacks": 6317,
      "adapted": 6318,
      "struggles": 6319,
      "arrog": 6320,
      "cases": 6321,
      "replaced": 6322,
      "risk": 6323,
      "concentr": 6324,
      "tongue": 6325,
      "24": 6326,
      "bach": 6327,
      "ecc": 6328,
      "##fall": 6329,
      "##erior": 6330,
      "##ato": 6331,
      "##icing": 6332,
      "##ilton": 6333,
      "##rian": 6334,
      "##ela": 6335,
      "finan": 6336,
      "parent": 6337,
      "glor": 6338,
      "raj": 6339,
      "winter": 6340,
      "concert": 6341,
      "roberts": 6342,
      "burt": 6343,
      "presentation": 6344,
      "bridge": 6345,
      "garden": 6346,
      "wheel": 6347,
      "derek": 6348,
      "fbi": 6349,
      "fisher": 6350,
      "kap": 6351,
      "viv": 6352,
      "##face": 6353,
      "##lection": 6354,
      "stiff": 6355,
      "alike": 6356,
      "exerc": 6357,
      "##actic": 6358,
      "tender": 6359,
      "##quis": 6360,
      "happily": 6361,
      "eleg": 6362,
      "wishes": 6363,
      "flynn": 6364,
      "aston": 6365,
      "physically": 6366,
      "##----": 6367,
      "packed": 6368,
      "neighb": 6369,
      "widmark": 6370,
      "disappear": 6371,
      "cynical": 6372,
      "boll": 6373,
      "bald": 6374,
      "hills": 6375,
      "mes": 6376,
      "nur": 6377,
      "oz": 6378,
      "tied": 6379,
      "wicked": 6380,
      "##udes": 6381,
      ".......": 6382,
      "##ello": 6383,
      "parall": 6384,
      "sket": 6385,
      "stupidity": 6386,
      "conclud": 6387,
      "thrilling": 6388,
      "burton": 6389,
      "oscars": 6390,
      "equal": 6391,
      "innov": 6392,
      "expressions": 6393,
      "jumps": 6394,
      "reference": 6395,
      "official": 6396,
      "dubbing": 6397,
      "reunion": 6398,
      "unforget": 6399,
      "poignant": 6400,
      "hors": 6401,
      "tense": 6402,
      "tune": 6403,
      "##rist": 6404,
      "##ij": 6405,
      "##inal": 6406,
      "bew": 6407,
      "beating": 6408,
      "pray": 6409,
      "proof": 6410,
      "dod": 6411,
      "depe": 6412,
      "compr": 6413,
      "cance": 6414,
      "thro": 6415,
      "prevent": 6416,
      "##assion": 6417,
      "carn": 6418,
      "gras": 6419,
      "sinister": 6420,
      "##appy": 6421,
      "corp": 6422,
      "topic": 6423,
      "styl": 6424,
      "ironic": 6425,
      "develops": 6426,
      "##ification": 6427,
      "jerk": 6428,
      "innocence": 6429,
      "minimal": 6430,
      "elder": 6431,
      "sons": 6432,
      "zone": 6433,
      "##drop": 6434,
      "##gate": 6435,
      "##??": 6436,
      "##isand": 6437,
      "item": 6438,
      "sham": 6439,
      "cham": 6440,
      "weight": 6441,
      "##ustrated": 6442,
      "unpr": 6443,
      "legs": 6444,
      "seeking": 6445,
      "usa": 6446,
      "carrey": 6447,
      "whereas": 6448,
      "stranger": 6449,
      "subm": 6450,
      "farm": 6451,
      "curse": 6452,
      "guessing": 6453,
      "profession": 6454,
      "spiritual": 6455,
      "julie": 6456,
      "thousands": 6457,
      "dentist": 6458,
      "cousin": 6459,
      "massacre": 6460,
      "advantage": 6461,
      "\"...": 6462,
      "1st": 6463,
      "guts": 6464,
      "jake": 6465,
      "jac": 6466,
      "lur": 6467,
      "##mal": 6468,
      "##pet": 6469,
      "##zed": 6470,
      "##gress": 6471,
      "render": 6472,
      "noted": 6473,
      "frag": 6474,
      "plague": 6475,
      "nose": 6476,
      "fac": 6477,
      "served": 6478,
      "basket": 6479,
      "consists": 6480,
      "glimp": 6481,
      "opened": 6482,
      "credibility": 6483,
      "##airs": 6484,
      "patri": 6485,
      "medical": 6486,
      "streisand": 6487,
      "hamlet": 6488,
      "introduction": 6489,
      "hyster": 6490,
      "encoun": 6491,
      "##blance": 6492,
      "scratch": 6493,
      "protagonists": 6494,
      "lucas": 6495,
      "hundreds": 6496,
      "assistant": 6497,
      "wealthy": 6498,
      "kirk": 6499,
      "splendid": 6500,
      "nelson": 6501,
      "hudson": 6502,
      "glimpse": 6503,
      "boun": 6504,
      "hanks": 6505,
      "wake": 6506,
      "##rence": 6507,
      "##nic": 6508,
      "##ora": 6509,
      "##eds": 6510,
      "isra": 6511,
      "stumb": 6512,
      "shy": 6513,
      "chic": 6514,
      "##race": 6515,
      "##elve": 6516,
      "greatly": 6517,
      "carter": 6518,
      "flu": 6519,
      "##berl": 6520,
      "trial": 6521,
      "elvis": 6522,
      "mindless": 6523,
      "dialogs": 6524,
      "perfection": 6525,
      "shorts": 6526,
      "dragged": 6527,
      "homeless": 6528,
      "luci": 6529,
      "exceptional": 6530,
      "laid": 6531,
      "larger": 6532,
      "britain": 6533,
      "accepted": 6534,
      "?).": 6535,
      "puzz": 6536,
      "burning": 6537,
      "connected": 6538,
      "baker": 6539,
      "belongs": 6540,
      "curtis": 6541,
      "franchise": 6542,
      "portrait": 6543,
      "encounters": 6544,
      "bust": 6545,
      "cos": 6546,
      "hes": 6547,
      "kh": 6548,
      "pg": 6549,
      "inher": 6550,
      "wash": 6551,
      "wasting": 6552,
      "plastic": 6553,
      "mann": 6554,
      "spots": 6555,
      "blair": 6556,
      "poet": 6557,
      "saves": 6558,
      "basement": 6559,
      "cole": 6560,
      "explicit": 6561,
      "corn": 6562,
      "thrillers": 6563,
      "2005": 6564,
      "burst": 6565,
      "destruction": 6566,
      "loser": 6567,
      "krist": 6568,
      "dorothy": 6569,
      "separate": 6570,
      "specific": 6571,
      "cannibal": 6572,
      "unbear": 6573,
      "atmospheric": 6574,
      "aired": 6575,
      "eerie": 6576,
      "lying": 6577,
      "mall": 6578,
      "tall": 6579,
      "thick": 6580,
      "thread": 6581,
      "albe": 6582,
      "neil": 6583,
      "enorm": 6584,
      "caric": 6585,
      "empath": 6586,
      "muslim": 6587,
      "sinc": 6588,
      "entry": 6589,
      "credible": 6590,
      "riding": 6591,
      "weakness": 6592,
      "suffered": 6593,
      "##roph": 6594,
      "expensive": 6595,
      "hunting": 6596,
      "obsession": 6597,
      "idiotic": 6598,
      "fortune": 6599,
      "laura": 6600,
      "savage": 6601,
      "chaplin": 6602,
      "thousand": 6603,
      "karloff": 6604,
      "infamous": 6605,
      "redemption": 6606,
      "israel": 6607,
      "albeit": 6608,
      "pap": 6609,
      "##ties": 6610,
      "##vably": 6611,
      "##lear": 6612,
      "rend": 6613,
      "##iments": 6614,
      "shaw": 6615,
      "##ppets": 6616,
      "##apes": 6617,
      "spike": 6618,
      "quote": 6619,
      "##forms": 6620,
      "guilt": 6621,
      "incons": 6622,
      "resort": 6623,
      "chew": 6624,
      "cheek": 6625,
      "borr": 6626,
      "insist": 6627,
      "glory": 6628,
      "eleph": 6629,
      "walken": 6630,
      "annoyed": 6631,
      "shoots": 6632,
      "technique": 6633,
      "suggests": 6634,
      "repeat": 6635,
      "essence": 6636,
      "fatal": 6637,
      "ritter": 6638,
      "charisma": 6639,
      "cusack": 6640,
      "oblig": 6641,
      "uncomfortable": 6642,
      "unforgettable": 6643,
      "sincere": 6644,
      "300": 6645,
      "ack": 6646,
      "bollywood": 6647,
      "catherine": 6648,
      "eager": 6649,
      "kane": 6650,
      "pir": 6651,
      "tang": 6652,
      "wiz": 6653,
      "##ca": 6654,
      "todd": 6655,
      "##ani": 6656,
      "inacc": 6657,
      "##ieu": 6658,
      "choos": 6659,
      "pride": 6660,
      "goal": 6661,
      "dise": 6662,
      "factory": 6663,
      "ourselves": 6664,
      "restaur": 6665,
      "unfold": 6666,
      "dancer": 6667,
      "##ointed": 6668,
      "cameos": 6669,
      "irony": 6670,
      "satan": 6671,
      "stops": 6672,
      "##uclear": 6673,
      "holiday": 6674,
      "thirty": 6675,
      "disagree": 6676,
      "arnold": 6677,
      "!.": 6678,
      "cup": 6679,
      "han": 6680,
      "ic": 6681,
      "oil": 6682,
      "pam": 6683,
      "sings": 6684,
      "##core": 6685,
      "##xon": 6686,
      "toile": 6687,
      "##cho": 6688,
      "chases": 6689,
      "scoo": 6690,
      "activ": 6691,
      "##opath": 6692,
      "perpet": 6693,
      "lovable": 6694,
      "awe": 6695,
      "##ifying": 6696,
      "elabor": 6697,
      "appearing": 6698,
      "letting": 6699,
      "godfather": 6700,
      "millions": 6701,
      "mcg": 6702,
      "ultra": 6703,
      "err": 6704,
      "1990": 6705,
      "afford": 6706,
      "salv": 6707,
      "colorful": 6708,
      "searching": 6709,
      "hiding": 6710,
      "racism": 6711,
      "21": 6712,
      "fitting": 6713,
      "mam": 6714,
      "tam": 6715,
      "vig": 6716,
      "##rum": 6717,
      "##ni": 6718,
      "##jud": 6719,
      "##enstein": 6720,
      "##anity": 6721,
      "infect": 6722,
      "stall": 6723,
      "chasing": 6724,
      "dear": 6725,
      "orch": 6726,
      "mechan": 6727,
      "knife": 6728,
      "##ocr": 6729,
      "lloyd": 6730,
      "elsewhere": 6731,
      "swing": 6732,
      "countries": 6733,
      "appearances": 6734,
      "hoped": 6735,
      "sexuality": 6736,
      "meaningful": 6737,
      "iii": 6738,
      "concerns": 6739,
      "bobby": 6740,
      "tricks": 6741,
      "rhy": 6742,
      "eastwood": 6743,
      "leonard": 6744,
      "##craft": 6745,
      "adequ": 6746,
      "custom": 6747,
      "horses": 6748,
      "econ": 6749,
      "gim": 6750,
      "wann": 6751,
      "ish": 6752,
      "shines": 6753,
      "maid": 6754,
      "##geon": 6755,
      "crimes": 6756,
      "backdrop": 6757,
      "pointed": 6758,
      "trav": 6759,
      "helen": 6760,
      "##entionally": 6761,
      "parad": 6762,
      "##***": 6763,
      "engine": 6764,
      "inspiring": 6765,
      "kicks": 6766,
      "ambig": 6767,
      "gripping": 6768,
      "split": 6769,
      "stealing": 6770,
      "bakshi": 6771,
      "sneak": 6772,
      "dare": 6773,
      "fianc": 6774,
      "kaz": 6775,
      "nuclear": 6776,
      "pond": 6777,
      "sg": 6778,
      "yu": 6779,
      "##via": 6780,
      "##any": 6781,
      "heat": 6782,
      "upd": 6783,
      "clips": 6784,
      "enjoyment": 6785,
      "phant": 6786,
      "conserv": 6787,
      "detract": 6788,
      "selfish": 6789,
      "dealt": 6790,
      "solve": 6791,
      "fashioned": 6792,
      "competent": 6793,
      "griff": 6794,
      "battles": 6795,
      "revelation": 6796,
      "library": 6797,
      "incoherent": 6798,
      "exercise": 6799,
      "econom": 6800,
      "jen": 6801,
      "pi": 6802,
      "ramp": 6803,
      "tons": 6804,
      "##nan": 6805,
      "##pass": 6806,
      "##ito": 6807,
      "##reen": 6808,
      "bears": 6809,
      "alf": 6810,
      "unim": 6811,
      "trade": 6812,
      "rochester": 6813,
      "margar": 6814,
      "dramas": 6815,
      "techniques": 6816,
      "silence": 6817,
      "wilder": 6818,
      "requires": 6819,
      "segments": 6820,
      "jesse": 6821,
      "splatter": 6822,
      "surrounded": 6823,
      "performers": 6824,
      "charismatic": 6825,
      "##rehens": 6826,
      "admittedly": 6827,
      "atlant": 6828,
      "gothic": 6829,
      "magazine": 6830,
      "horrendous": 6831,
      "covers": 6832,
      "daw": 6833,
      "hire": 6834,
      "hitting": 6835,
      "lily": 6836,
      "nail": 6837,
      "vin": 6838,
      "##oz": 6839,
      "##len": 6840,
      "##iently": 6841,
      "##esis": 6842,
      "##asingly": 6843,
      "##ads": 6844,
      "##chant": 6845,
      "anch": 6846,
      "##idents": 6847,
      "outl": 6848,
      "##istically": 6849,
      "perry": 6850,
      "fired": 6851,
      "believing": 6852,
      "superher": 6853,
      "boom": 6854,
      "corb": 6855,
      "##ggie": 6856,
      "transfer": 6857,
      "closely": 6858,
      "striking": 6859,
      "?),": 6860,
      "scientists": 6861,
      "medium": 6862,
      "newsp": 6863,
      "investigation": 6864,
      "university": 6865,
      "stretch": 6866,
      "mitchell": 6867,
      "inexplic": 6868,
      "inaccur": 6869,
      "scooby": 6870,
      "bin": 6871,
      "gle": 6872,
      "gift": 6873,
      "ian": 6874,
      "jet": 6875,
      "mate": 6876,
      "ripped": 6877,
      "sque": 6878,
      "tail": 6879,
      "##hoe": 6880,
      "rex": 6881,
      "##entric": 6882,
      "sends": 6883,
      "##ira": 6884,
      "butch": 6885,
      "clown": 6886,
      "bette": 6887,
      "eva": 6888,
      "territ": 6889,
      "bugs": 6890,
      "craig": 6891,
      "monkey": 6892,
      "countless": 6893,
      "huh": 6894,
      "paulie": 6895,
      "complaint": 6896,
      "luckily": 6897,
      "reactions": 6898,
      "miike": 6899,
      "surrounding": 6900,
      "canada": 6901,
      "citizen": 6902,
      "00": 6903,
      "bare": 6904,
      "hust": 6905,
      "pover": 6906,
      "##rob": 6907,
      "##aid": 6908,
      "##ller": 6909,
      "##ooge": 6910,
      "comics": 6911,
      "timeless": 6912,
      "noise": 6913,
      "##ishment": 6914,
      "attraction": 6915,
      "marc": 6916,
      "scripts": 6917,
      "childish": 6918,
      "handful": 6919,
      "giall": 6920,
      "##ographic": 6921,
      "attempted": 6922,
      "modesty": 6923,
      "launch": 6924,
      "2002": 6925,
      "forgive": 6926,
      "troubled": 6927,
      "achieved": 6928,
      "replace": 6929,
      "increasingly": 6930,
      "tribute": 6931,
      "overlooked": 6932,
      "ingred": 6933,
      "poverty": 6934,
      "99": 6935,
      "ape": 6936,
      "cube": 6937,
      "eg": 6938,
      "kub": 6939,
      "marsh": 6940,
      "pushed": 6941,
      "rome": 6942,
      "um": 6943,
      "##rd": 6944,
      "##hold": 6945,
      "toss": 6946,
      "##oven": 6947,
      "##overy": 6948,
      "##oops": 6949,
      "doors": 6950,
      "clues": 6951,
      "imit": 6952,
      "glover": 6953,
      "creation": 6954,
      "controll": 6955,
      "motor": 6956,
      "duke": 6957,
      "sentiment": 6958,
      "virus": 6959,
      "strikes": 6960,
      "homage": 6961,
      "briefly": 6962,
      "smoking": 6963,
      "##worth": 6964,
      "venge": 6965,
      "thumbs": 6966,
      "tremendous": 6967,
      "phenomen": 6968,
      "bible": 6969,
      "rushed": 6970,
      "##kind": 6971,
      "##ype": 6972,
      "##orthy": 6973,
      "stir": 6974,
      "abc": 6975,
      "abys": 6976,
      "abrupt": 6977,
      "conven": 6978,
      "##eryl": 6979,
      "maniac": 6980,
      "blob": 6981,
      "horrors": 6982,
      "string": 6983,
      "worlds": 6984,
      "##ibl": 6985,
      "enters": 6986,
      "confess": 6987,
      "distant": 6988,
      "assault": 6989,
      "drivel": 6990,
      "rocks": 6991,
      "occurs": 6992,
      "denzel": 6993,
      "superbly": 6994,
      "limit": 6995,
      "boredom": 6996,
      "labor": 6997,
      "hatred": 6998,
      "highlights": 6999,
      "hooked": 7000,
      "birthday": 7001,
      "kidnapped": 7002,
      "executive": 7003,
      "strictly": 7004,
      "inconsist": 7005,
      "ax": 7006,
      "apr": 7007,
      "bay": 7008,
      "cens": 7009,
      "kat": 7010,
      "kitch": 7011,
      "od": 7012,
      "##oub": 7013,
      "##arm": 7014,
      "whale": 7015,
      "rein": 7016,
      "stated": 7017,
      "chances": 7018,
      "union": 7019,
      "unple": 7020,
      "shep": 7021,
      "fears": 7022,
      "clint": 7023,
      "tea": 7024,
      "spa": 7025,
      "##isha": 7026,
      "struck": 7027,
      "attached": 7028,
      "evident": 7029,
      "bug": 7030,
      "menacing": 7031,
      "drags": 7032,
      "easier": 7033,
      "messages": 7034,
      "typically": 7035,
      "opposed": 7036,
      "photographer": 7037,
      "secretary": 7038,
      "jeremy": 7039,
      "acceptable": 7040,
      "walls": 7041,
      "attracted": 7042,
      "folk": 7043,
      "temper": 7044,
      "miserably": 7045,
      "cag": 7046,
      "heston": 7047,
      "lan": 7048,
      "##gun": 7049,
      "##isation": 7050,
      "##ona": 7051,
      "##icient": 7052,
      "suits": 7053,
      "##emention": 7054,
      "fever": 7055,
      "pear": 7056,
      "##mann": 7057,
      "quar": 7058,
      "afor": 7059,
      "gray": 7060,
      "grows": 7061,
      "killings": 7062,
      "turner": 7063,
      "appalling": 7064,
      "wonders": 7065,
      "relevant": 7066,
      "yester": 7067,
      "mistaken": 7068,
      "narrator": 7069,
      "strike": 7070,
      "rapid": 7071,
      "insulting": 7072,
      "##iosity": 7073,
      "individuals": 7074,
      "precise": 7075,
      "ironically": 7076,
      "photographed": 7077,
      "endearing": 7078,
      "brosnan": 7079,
      "manhattan": 7080,
      "toilet": 7081,
      "kubrick": 7082,
      "##ementioned": 7083,
      "45": 7084,
      "josh": 7085,
      "pse": 7086,
      "rig": 7087,
      "voc": 7088,
      "##uate": 7089,
      "stead": 7090,
      "shining": 7091,
      "webs": 7092,
      "plat": 7093,
      "spread": 7094,
      "partly": 7095,
      "craven": 7096,
      "cox": 7097,
      "explod": 7098,
      "hearts": 7099,
      "##gger": 7100,
      "advance": 7101,
      "politic": 7102,
      "poster": 7103,
      "##shine": 7104,
      "20th": 7105,
      "projects": 7106,
      "identify": 7107,
      "represents": 7108,
      "threatening": 7109,
      "cardboard": 7110,
      "alcohol": 7111,
      "korean": 7112,
      "jealous": 7113,
      "subsequent": 7114,
      "kudos": 7115,
      "nurse": 7116,
      "cagney": 7117,
      "pseud": 7118,
      "35": 7119,
      "dah": 7120,
      "ego": 7121,
      "falk": 7122,
      "gyp": 7123,
      "mile": 7124,
      "##iable": 7125,
      "tooth": 7126,
      "stood": 7127,
      "shah": 7128,
      "sopr": 7129,
      "mafia": 7130,
      "##usions": 7131,
      "poison": 7132,
      "characterization": 7133,
      "drown": 7134,
      "resour": 7135,
      "editor": 7136,
      "worthless": 7137,
      "nights": 7138,
      "carefully": 7139,
      "drac": 7140,
      "brilliance": 7141,
      "spoiled": 7142,
      "listed": 7143,
      "importantly": 7144,
      "illustr": 7145,
      "1970s": 7146,
      "boxing": 7147,
      "jumping": 7148,
      "hype": 7149,
      "bleak": 7150,
      "logical": 7151,
      "astaire": 7152,
      "revealing": 7153,
      "shirt": 7154,
      "fifteen": 7155,
      "ticket": 7156,
      "liberal": 7157,
      "inevitable": 7158,
      "gandhi": 7159,
      "outrageous": 7160,
      "ellen": 7161,
      "sophisticated": 7162,
      "eccentric": 7163,
      "aforementioned": 7164,
      "cia": 7165,
      "dur": 7166,
      "gor": 7167,
      "ginger": 7168,
      "tiger": 7169,
      "##ye": 7170,
      "##erning": 7171,
      "##ata": 7172,
      "##oric": 7173,
      "inse": 7174,
      "bride": 7175,
      "##ado": 7176,
      "##uristic": 7177,
      "exch": 7178,
      "dire": 7179,
      "meg": 7180,
      "blows": 7181,
      "prejud": 7182,
      "afterwards": 7183,
      "worker": 7184,
      "beings": 7185,
      "horrid": 7186,
      "spending": 7187,
      "edie": 7188,
      "conscious": 7189,
      "artific": 7190,
      "shortly": 7191,
      "talked": 7192,
      "norman": 7193,
      "useless": 7194,
      "stronger": 7195,
      "importance": 7196,
      "duo": 7197,
      "judg": 7198,
      "stunts": 7199,
      "cruise": 7200,
      "ambitious": 7201,
      "competition": 7202,
      "drunken": 7203,
      "bucks": 7204,
      "melodramatic": 7205,
      "symbolism": 7206,
      "kenneth": 7207,
      "dropped": 7208,
      "laurel": 7209,
      "exaggerated": 7210,
      "uninspired": 7211,
      "forbidden": 7212,
      "corpse": 7213,
      "unpleasant": 7214,
      "foul": 7215,
      "gil": 7216,
      "hollow": 7217,
      "hank": 7218,
      "hmm": 7219,
      "jun": 7220,
      "##tw": 7221,
      "##kick": 7222,
      "##mons": 7223,
      "##cut": 7224,
      "##onse": 7225,
      "##anny": 7226,
      "##alo": 7227,
      "shout": 7228,
      "selling": 7229,
      "wend": 7230,
      "##ola": 7231,
      "##ummer": 7232,
      "##igan": 7233,
      "...)": 7234,
      "muse": 7235,
      "twin": 7236,
      "emily": 7237,
      "compassion": 7238,
      "##aze": 7239,
      "reluct": 7240,
      "trap": 7241,
      "persona": 7242,
      "sexually": 7243,
      "breasts": 7244,
      "cameron": 7245,
      "admire": 7246,
      "2004": 7247,
      "1980s": 7248,
      "pulling": 7249,
      "##coming": 7250,
      "regardless": 7251,
      "alexander": 7252,
      "torment": 7253,
      "##world": 7254,
      "##works": 7255,
      "digital": 7256,
      "nazis": 7257,
      "altman": 7258,
      "unwatch": 7259,
      "associated": 7260,
      "superficial": 7261,
      "piano": 7262,
      "kapoor": 7263,
      "dracula": 7264,
      "bone": 7265,
      "fx": 7266,
      "fist": 7267,
      "gw": 7268,
      "kay": 7269,
      "nod": 7270,
      "sally": 7271,
      "##now": 7272,
      "##iors": 7273,
      "##fun": 7274,
      "anal": 7275,
      "##iders": 7276,
      "allowing": 7277,
      "##inda": 7278,
      "##agin": 7279,
      "donna": 7280,
      "prev": 7281,
      "guide": 7282,
      "empire": 7283,
      "wondered": 7284,
      "enterpr": 7285,
      "differences": 7286,
      "eyed": 7287,
      "morris": 7288,
      "satir": 7289,
      "thrills": 7290,
      "psychotic": 7291,
      "documentaries": 7292,
      "flawless": 7293,
      "verhoe": 7294,
      "berg": 7295,
      "draws": 7296,
      "discussion": 7297,
      "unintentionally": 7298,
      "sacrifice": 7299,
      "consequences": 7300,
      "francisco": 7301,
      "jamie": 7302,
      "conspiracy": 7303,
      "verhoeven": 7304,
      "az": 7305,
      "aks": 7306,
      "dill": 7307,
      "ire": 7308,
      "punk": 7309,
      "tie": 7310,
      "tad": 7311,
      "wack": 7312,
      "##rics": 7313,
      "##tes": 7314,
      "##lk": 7315,
      "##oting": 7316,
      "shoes": 7317,
      "chill": 7318,
      "##keys": 7319,
      "##unning": 7320,
      "##orted": 7321,
      "slick": 7322,
      "gotta": 7323,
      "suburb": 7324,
      "farce": 7325,
      "instit": 7326,
      "reasonable": 7327,
      "reasonably": 7328,
      "imagined": 7329,
      "curiosity": 7330,
      "2003": 7331,
      "marks": 7332,
      "buried": 7333,
      "planning": 7334,
      "exposed": 7335,
      "slightest": 7336,
      "convol": 7337,
      "arrested": 7338,
      "sunshine": 7339,
      "depression": 7340,
      "juven": 7341,
      "australia": 7342,
      "carrie": 7343,
      "fulci": 7344,
      "accomplished": 7345,
      "birds": 7346,
      "incompet": 7347,
      "dignity": 7348,
      "mast": 7349,
      "oce": 7350,
      "pink": 7351,
      "##iation": 7352,
      "##isions": 7353,
      "sept": 7354,
      "select": 7355,
      "##tering": 7356,
      "##rial": 7357,
      "neo": 7358,
      "......": 7359,
      "blake": 7360,
      "slim": 7361,
      "##weight": 7362,
      "resur": 7363,
      "instantly": 7364,
      "scripted": 7365,
      "bold": 7366,
      "morality": 7367,
      "videos": 7368,
      "uniform": 7369,
      "checking": 7370,
      "##etta": 7371,
      "pleasantly": 7372,
      "estate": 7373,
      "1930s": 7374,
      "juliet": 7375,
      "lifesty": 7376,
      "royal": 7377,
      "matthew": 7378,
      "##breaking": 7379,
      "resolution": 7380,
      "margaret": 7381,
      "dave": 7382,
      "hul": 7383,
      "lap": 7384,
      "mars": 7385,
      "tame": 7386,
      "##nes": 7387,
      "tool": 7388,
      "extended": 7389,
      "arc": 7390,
      "screams": 7391,
      "appr": 7392,
      "dancers": 7393,
      "marty": 7394,
      "merit": 7395,
      "palma": 7396,
      "beaten": 7397,
      "candid": 7398,
      "continued": 7399,
      "commercials": 7400,
      "obscure": 7401,
      "presumably": 7402,
      "captivating": 7403,
      "spooky": 7404,
      "restaurant": 7405,
      "dum": 7406,
      "kin": 7407,
      "nun": 7408,
      "rive": 7409,
      "rif": 7410,
      "##tv": 7411,
      "##mick": 7412,
      "##hand": 7413,
      "##atisf": 7414,
      "ingen": 7415,
      "reyn": 7416,
      "chest": 7417,
      "notably": 7418,
      "outcome": 7419,
      "unm": 7420,
      "##aude": 7421,
      "anyways": 7422,
      "overrated": 7423,
      "offs": 7424,
      "##ionship": 7425,
      "musc": 7426,
      "param": 7427,
      "explore": 7428,
      "generous": 7429,
      "picking": 7430,
      "returned": 7431,
      "....<": 7432,
      "goldberg": 7433,
      "grandmother": 7434,
      "joey": 7435,
      "##pses": 7436,
      "souls": 7437,
      "bullet": 7438,
      "idiots": 7439,
      "affected": 7440,
      "intrigued": 7441,
      "loosely": 7442,
      "precious": 7443,
      "felix": 7444,
      "psychiatrist": 7445,
      "gimmick": 7446,
      "wannabe": 7447,
      "akshay": 7448,
      "daring": 7449,
      "hers": 7450,
      "sov": 7451,
      "##pin": 7452,
      "##erved": 7453,
      "##asion": 7454,
      "##othing": 7455,
      "##aled": 7456,
      "beer": 7457,
      "rever": 7458,
      "shak": 7459,
      "notes": 7460,
      "##rah": 7461,
      "conqu": 7462,
      "##aki": 7463,
      "##ogether": 7464,
      "##agan": 7465,
      "peak": 7466,
      "saf": 7467,
      "recover": 7468,
      "apes": 7469,
      "directorial": 7470,
      "settle": 7471,
      "terry": 7472,
      "termin": 7473,
      "composed": 7474,
      "phr": 7475,
      "insert": 7476,
      "misses": 7477,
      "creators": 7478,
      "fancy": 7479,
      "titled": 7480,
      "lacked": 7481,
      "purple": 7482,
      "contrary": 7483,
      "devast": 7484,
      "antics": 7485,
      "returning": 7486,
      "spirited": 7487,
      "builds": 7488,
      "meaningless": 7489,
      "response": 7490,
      "bedroom": 7491,
      "unbelievably": 7492,
      "voight": 7493,
      "argument": 7494,
      "escaped": 7495,
      "aimed": 7496,
      "synops": 7497,
      "altogether": 7498,
      "occurred": 7499,
      "landscape": 7500,
      "subplot": 7501,
      "##rehensible": 7502,
      "superhero": 7503,
      "giallo": 7504,
      "kitchen": 7505,
      "dict": 7506,
      "gif": 7507,
      "ought": 7508,
      "size": 7509,
      "##rain": 7510,
      "##ds": 7511,
      "##lan": 7512,
      "##cil": 7513,
      "##lle": 7514,
      "##llie": 7515,
      "##icity": 7516,
      "##entine": 7517,
      "chain": 7518,
      "chains": 7519,
      "##ulf": 7520,
      "##ortion": 7521,
      "##igo": 7522,
      "pretend": 7523,
      "poll": 7524,
      "cared": 7525,
      "performing": 7526,
      "genres": 7527,
      "relent": 7528,
      "indians": 7529,
      "unfair": 7530,
      "annie": 7531,
      "pleased": 7532,
      "reduced": 7533,
      "transport": 7534,
      "illog": 7535,
      "winds": 7536,
      "combat": 7537,
      "'.<": 7538,
      "observ": 7539,
      "##opping": 7540,
      "reached": 7541,
      "smoke": 7542,
      "argue": 7543,
      "shadows": 7544,
      "electric": 7545,
      "achievement": 7546,
      "hypn": 7547,
      "motivation": 7548,
      "conceived": 7549,
      "involvement": 7550,
      "pulp": 7551,
      "grinch": 7552,
      "throat": 7553,
      "hysterical": 7554,
      "disease": 7555,
      "orchest": 7556,
      "ireland": 7557,
      "convoluted": 7558,
      "lamp": 7559,
      "nas": 7560,
      "pars": 7561,
      "roth": 7562,
      "##rich": 7563,
      "##bal": 7564,
      "##cend": 7565,
      "exter": 7566,
      "timothy": 7567,
      "watches": 7568,
      "spider": 7569,
      "blast": 7570,
      "blunt": 7571,
      "fluff": 7572,
      "slave": 7573,
      "sloppy": 7574,
      "stress": 7575,
      "warren": 7576,
      "##ashes": 7577,
      "coherent": 7578,
      "glenn": 7579,
      "absence": 7580,
      "discovery": 7581,
      "sidekick": 7582,
      "secrets": 7583,
      "palt": 7584,
      "burned": 7585,
      "blend": 7586,
      "bullets": 7587,
      "drawing": 7588,
      "raped": 7589,
      "optim": 7590,
      "vulner": 7591,
      "global": 7592,
      "assassin": 7593,
      "installment": 7594,
      "repetitive": 7595,
      "astonishing": 7596,
      "unbearable": 7597,
      "elaborate": 7598,
      "territory": 7599,
      "juvenile": 7600,
      "reynolds": 7601,
      "\";": 7602,
      "50s": 7603,
      "dish": 7604,
      "fog": 7605,
      "mun": 7606,
      "nause": 7607,
      "nerv": 7608,
      "rage": 7609,
      "sill": 7610,
      "vib": 7611,
      "vicious": 7612,
      "##ees": 7613,
      "##of": 7614,
      "##iar": 7615,
      "##edict": 7616,
      "befriend": 7617,
      "reh": 7618,
      "reli": 7619,
      "stole": 7620,
      "##idy": 7621,
      "supre": 7622,
      "scot": 7623,
      "##olves": 7624,
      "wells": 7625,
      "sail": 7626,
      "realise": 7627,
      "function": 7628,
      "awa": 7629,
      "newcom": 7630,
      "##ifting": 7631,
      "march": 7632,
      "accused": 7633,
      "coach": 7634,
      "skull": 7635,
      "danes": 7636,
      "##lands": 7637,
      "distance": 7638,
      "heroic": 7639,
      "concerning": 7640,
      "failing": 7641,
      "##unky": 7642,
      "garner": 7643,
      "odds": 7644,
      "contained": 7645,
      "beatty": 7646,
      "require": 7647,
      "bathroom": 7648,
      "translation": 7649,
      "choreography": 7650,
      "dutch": 7651,
      "elderly": 7652,
      "yesterday": 7653,
      "synopsis": 7654,
      "banned": 7655,
      "fart": 7656,
      "hug": 7657,
      "kol": 7658,
      "pushing": 7659,
      "ross": 7660,
      "rabb": 7661,
      "##just": 7662,
      "##ingu": 7663,
      "inapp": 7664,
      "movements": 7665,
      "anx": 7666,
      "frustrated": 7667,
      "neur": 7668,
      "##olph": 7669,
      "##istan": 7670,
      "##inder": 7671,
      "adoles": 7672,
      "crook": 7673,
      "displays": 7674,
      "humili": 7675,
      "##atingly": 7676,
      "producing": 7677,
      "misunder": 7678,
      "holy": 7679,
      "acclaim": 7680,
      "##isms": 7681,
      "confir": 7682,
      "dramat": 7683,
      "styles": 7684,
      "demands": 7685,
      "cats": 7686,
      "*****": 7687,
      "machines": 7688,
      "improved": 7689,
      "receive": 7690,
      "panic": 7691,
      "defeat": 7692,
      "##!!!!!!!!": 7693,
      "remaining": 7694,
      "waters": 7695,
      "nicholson": 7696,
      "scheme": 7697,
      "warrior": 7698,
      "swedish": 7699,
      "enterprise": 7700,
      "dating": 7701,
      "egy": 7702,
      "nem": 7703,
      "ta": 7704,
      "##ean": 7705,
      "##ucing": 7706,
      "##iy": 7707,
      "##err": 7708,
      "##inn": 7709,
      "brains": 7710,
      "retain": 7711,
      "staged": 7712,
      "stabb": 7713,
      "##urance": 7714,
      "suited": 7715,
      "mail": 7716,
      "enchant": 7717,
      "##ume": 7718,
      "intent": 7719,
      "imper": 7720,
      "crush": 7721,
      "twelve": 7722,
      "disj": 7723,
      "##anski": 7724,
      "apolog": 7725,
      "imperson": 7726,
      "romero": 7727,
      "darker": 7728,
      "collabor": 7729,
      "promin": 7730,
      "swear": 7731,
      "ridiculously": 7732,
      "futuristic": 7733,
      "nearby": 7734,
      "latin": 7735,
      "closet": 7736,
      "franco": 7737,
      "undoub": 7738,
      "alexand": 7739,
      "arrive": 7740,
      "exploit": 7741,
      "persu": 7742,
      "##aaaa": 7743,
      "investigate": 7744,
      "jeffrey": 7745,
      "defend": 7746,
      "conversations": 7747,
      "repeatedly": 7748,
      "tunes": 7749,
      "dynamic": 7750,
      "lemmon": 7751,
      "metaphor": 7752,
      "olivier": 7753,
      "exhib": 7754,
      "crocod": 7755,
      "mesmer": 7756,
      "dawson": 7757,
      "egypt": 7758,
      "2nd": 7759,
      "3rd": 7760,
      "bite": 7761,
      "cunning": 7762,
      "fing": 7763,
      "hog": 7764,
      "tires": 7765,
      "wis": 7766,
      "##uated": 7767,
      "##hem": 7768,
      "brun": 7769,
      "whoop": 7770,
      "beats": 7771,
      "##ilted": 7772,
      "##ovich": 7773,
      "reel": 7774,
      "##urai": 7775,
      "exotic": 7776,
      "abilities": 7777,
      "outer": 7778,
      "##obic": 7779,
      "##ayson": 7780,
      "aging": 7781,
      "flop": 7782,
      "enjoys": 7783,
      "eyre": 7784,
      "providing": 7785,
      "engaged": 7786,
      "murderous": 7787,
      "davies": 7788,
      "2007": 7789,
      "madonna": 7790,
      "cinematographer": 7791,
      "staying": 7792,
      "illeg": 7793,
      "##ettes": 7794,
      "samurai": 7795,
      "disturbed": 7796,
      "ranks": 7797,
      "cellul": 7798,
      "explosion": 7799,
      "proceedings": 7800,
      "encoura": 7801,
      "divorce": 7802,
      "##original": 7803,
      "adequate": 7804,
      "unwatchable": 7805,
      "illogical": 7806,
      "ew": 7807,
      "elli": 7808,
      "fighter": 7809,
      "##end": 7810,
      "##iere": 7811,
      "##jo": 7812,
      "##iner": 7813,
      "##ications": 7814,
      "stard": 7815,
      "staff": 7816,
      "##estic": 7817,
      "scor": 7818,
      "maggie": 7819,
      "conve": 7820,
      "##umble": 7821,
      "##place": 7822,
      "generic": 7823,
      "harder": 7824,
      "audio": 7825,
      "careers": 7826,
      "buddies": 7827,
      "cameras": 7828,
      "sadistic": 7829,
      "walker": 7830,
      "snake": 7831,
      "popc": 7832,
      "repuls": 7833,
      "bene": 7834,
      "technic": 7835,
      "countryside": 7836,
      "judy": 7837,
      "wallace": 7838,
      "fundam": 7839,
      "respond": 7840,
      "sales": 7841,
      "berlin": 7842,
      "intrigue": 7843,
      "karen": 7844,
      "terrorist": 7845,
      "temple": 7846,
      "sarc": 7847,
      "resembles": 7848,
      "resemblance": 7849,
      "explosions": 7850,
      "kennedy": 7851,
      "florida": 7852,
      "arab": 7853,
      "indulg": 7854,
      "innovative": 7855,
      "newspaper": 7856,
      "april": 7857,
      "website": 7858,
      "disjointed": 7859,
      "celluloid": 7860,
      "\"!": 7861,
      "cried": 7862,
      "finger": 7863,
      "pic": 7864,
      "pant": 7865,
      "pays": 7866,
      "##ration": 7867,
      "##aurs": 7868,
      "##uing": 7869,
      "##icop": 7870,
      "rebel": 7871,
      "forty": 7872,
      "chor": 7873,
      "notion": 7874,
      "##ulate": 7875,
      "##abh": 7876,
      "measure": 7877,
      "##umsy": 7878,
      "##aux": 7879,
      "goodness": 7880,
      "##udge": 7881,
      "clo": 7882,
      "clumsy": 7883,
      "arist": 7884,
      "adul": 7885,
      "interrupt": 7886,
      "##quel": 7887,
      "awake": 7888,
      "##acies": 7889,
      "decor": 7890,
      "helicop": 7891,
      "wax": 7892,
      "harvey": 7893,
      "streep": 7894,
      "garbo": 7895,
      "companion": 7896,
      "1930": 7897,
      "furthermore": 7898,
      "sticks": 7899,
      "traveling": 7900,
      "affection": 7901,
      "passionate": 7902,
      "primary": 7903,
      "uneven": 7904,
      "vulgar": 7905,
      "distracting": 7906,
      "ruthless": 7907,
      "doomed": 7908,
      "overwhelming": 7909,
      "chaos": 7910,
      "seventies": 7911,
      "popcorn": 7912,
      "nort": 7913,
      "woo": 7914,
      "##bie": 7915,
      "##nel": 7916,
      "##va": 7917,
      "##lam": 7918,
      "##zilla": 7919,
      "##yon": 7920,
      "##gir": 7921,
      "brav": 7922,
      "##ctions": 7923,
      "rebell": 7924,
      "ster": 7925,
      "stack": 7926,
      "shap": 7927,
      "seed": 7928,
      "clay": 7929,
      "amy": 7930,
      "directs": 7931,
      "##ipes": 7932,
      "vegas": 7933,
      "decisions": 7934,
      "highest": 7935,
      "##awa": 7936,
      "kidding": 7937,
      "glorious": 7938,
      "excru": 7939,
      "barg": 7940,
      "centered": 7941,
      "##onym": 7942,
      "devoted": 7943,
      "##arthur": 7944,
      "duck": 7945,
      "airpl": 7946,
      "laws": 7947,
      "detailed": 7948,
      "judging": 7949,
      "causing": 7950,
      "ignored": 7951,
      "1940": 7952,
      "travels": 7953,
      "dickens": 7954,
      "widow": 7955,
      "hideous": 7956,
      "loads": 7957,
      "dozens": 7958,
      "specifically": 7959,
      "hartley": 7960,
      "comfortable": 7961,
      "yellow": 7962,
      "##ffee": 7963,
      "acknow": 7964,
      "undoubted": 7965,
      "excruci": 7966,
      "cig": 7967,
      "gib": 7968,
      "hbo": 7969,
      "houses": 7970,
      "jol": 7971,
      "jazz": 7972,
      "sme": 7973,
      "uwe": 7974,
      "##ros": 7975,
      "##writ": 7976,
      "toys": 7977,
      "##idal": 7978,
      "worried": 7979,
      "orders": 7980,
      "dixon": 7981,
      "lean": 7982,
      "characteristic": 7983,
      "grain": 7984,
      "removed": 7985,
      "sett": 7986,
      "warming": 7987,
      "classes": 7988,
      "steam": 7989,
      "steel": 7990,
      "housew": 7991,
      "portion": 7992,
      "possibility": 7993,
      "breed": 7994,
      "passes": 7995,
      "regul": 7996,
      "snl": 7997,
      "##enna": 7998,
      "commented": 7999,
      "solo": 8000,
      "groups": 8001,
      "##heim": 8002,
      "politically": 8003,
      "illness": 8004,
      "avoided": 8005,
      "focusing": 8006,
      "sentence": 8007,
      "damage": 8008,
      "1999": 8009,
      "hamilton": 8010,
      "ballet": 8011,
      "julian": 8012,
      "daddy": 8013,
      "neglect": 8014,
      "tracks": 8015,
      "mysteries": 8016,
      "explaining": 8017,
      "tortured": 8018,
      "represented": 8019,
      "eighties": 8020,
      "scrooge": 8021,
      "mountains": 8022,
      "gradually": 8023,
      "shirley": 8024,
      "philosophy": 8025,
      "benefit": 8026,
      "overdone": 8027,
      "immensely": 8028,
      "griffith": 8029,
      "aug": 8030,
      "dys": 8031,
      "egg": 8032,
      "lun": 8033,
      "##ko": 8034,
      "##uable": 8035,
      "##lag": 8036,
      "##stin": 8037,
      "shine": 8038,
      "justify": 8039,
      "##ounding": 8040,
      "endure": 8041,
      "blowing": 8042,
      "offering": 8043,
      "hardcore": 8044,
      "instant": 8045,
      "dialogues": 8046,
      "liking": 8047,
      "dances": 8048,
      "menace": 8049,
      "racial": 8050,
      "smaller": 8051,
      "godzilla": 8052,
      "fantas": 8053,
      "trees": 8054,
      "campbell": 8055,
      "spirits": 8056,
      "homer": 8057,
      "1960": 8058,
      "conventional": 8059,
      "macarthur": 8060,
      "immort": 8061,
      "desperation": 8062,
      "rambo": 8063,
      "subtlety": 8064,
      "practice": 8065,
      "sellers": 8066,
      "currently": 8067,
      "implausible": 8068,
      "lyrics": 8069,
      "prostitute": 8070,
      "isolated": 8071,
      "inhabit": 8072,
      "wizard": 8073,
      "atlantis": 8074,
      "ingredients": 8075,
      "pearl": 8076,
      "bergman": 8077,
      "ease": 8078,
      "greek": 8079,
      "icon": 8080,
      "nap": 8081,
      "ot": 8082,
      "pale": 8083,
      "rud": 8084,
      "ts": 8085,
      "##lers": 8086,
      "##po": 8087,
      "##gers": 8088,
      "brady": 8089,
      "##icism": 8090,
      "##cha": 8091,
      "##etically": 8092,
      "alert": 8093,
      "##abel": 8094,
      "diane": 8095,
      "clothing": 8096,
      "##obi": 8097,
      "amuse": 8098,
      "spock": 8099,
      "disli": 8100,
      "sappy": 8101,
      "serge": 8102,
      "obtain": 8103,
      "cheating": 8104,
      "relies": 8105,
      "thoughtful": 8106,
      "coffee": 8107,
      "explored": 8108,
      "robots": 8109,
      "acid": 8110,
      "unfolds": 8111,
      "##ographed": 8112,
      "models": 8113,
      "props": 8114,
      "weakest": 8115,
      "util": 8116,
      "existed": 8117,
      "subjects": 8118,
      "circle": 8119,
      "interaction": 8120,
      "swimming": 8121,
      "yawn": 8122,
      "population": 8123,
      "offended": 8124,
      "outfit": 8125,
      "nomination": 8126,
      "stellar": 8127,
      "dolph": 8128,
      "conservative": 8129,
      "pseudo": 8130,
      "artificial": 8131,
      "ec": 8132,
      "ears": 8133,
      "gest": 8134,
      "hates": 8135,
      "len": 8136,
      "rook": 8137,
      "vall": 8138,
      "##sp": 8139,
      "##ji": 8140,
      "threw": 8141,
      "##isons": 8142,
      "/>'": 8143,
      "whim": 8144,
      "sung": 8145,
      "##esth": 8146,
      "depend": 8147,
      "orph": 8148,
      "trained": 8149,
      "amit": 8150,
      "spare": 8151,
      "endings": 8152,
      "mund": 8153,
      "funeral": 8154,
      "drops": 8155,
      "keen": 8156,
      "performer": 8157,
      "trio": 8158,
      "glamor": 8159,
      "versus": 8160,
      "secondly": 8161,
      "possibilities": 8162,
      "guessed": 8163,
      "##enger": 8164,
      "gerard": 8165,
      "survival": 8166,
      "troubles": 8167,
      "hurts": 8168,
      "claimed": 8169,
      "urge": 8170,
      "satisfied": 8171,
      "nightmares": 8172,
      "##********": 8173,
      "faults": 8174,
      "stinker": 8175,
      "fonda": 8176,
      "unintentional": 8177,
      "dismiss": 8178,
      "lumet": 8179,
      "inventive": 8180,
      "dinosaurs": 8181,
      "unhappy": 8182,
      "ocean": 8183,
      "nervous": 8184,
      "undoubtedly": 8185,
      "rag": 8186,
      "wet": 8187,
      "##bird": 8188,
      "##cingly": 8189,
      "##crow": 8190,
      "##atures": 8191,
      "##orney": 8192,
      "##itar": 8193,
      "whis": 8194,
      "shan": 8195,
      "##verted": 8196,
      "lips": 8197,
      "##emark": 8198,
      "##ulated": 8199,
      "socc": 8200,
      "plight": 8201,
      "##igner": 8202,
      "armed": 8203,
      "adorable": 8204,
      "##peror": 8205,
      "##izable": 8206,
      "emperor": 8207,
      "mario": 8208,
      "lasted": 8209,
      "coast": 8210,
      "##xture": 8211,
      "synd": 8212,
      "waves": 8213,
      "painted": 8214,
      "curs": 8215,
      "devoid": 8216,
      "tommy": 8217,
      "motives": 8218,
      "suspic": 8219,
      "oppress": 8220,
      "kingdom": 8221,
      "lawrence": 8222,
      "destiny": 8223,
      "1972": 8224,
      "signs": 8225,
      "matches": 8226,
      "introduces": 8227,
      "hyper": 8228,
      "backgrounds": 8229,
      "austen": 8230,
      "trailers": 8231,
      "scarlet": 8232,
      "cryst": 8233,
      "satisfact": 8234,
      "authority": 8235,
      "coward": 8236,
      "succeeded": 8237,
      "##ropriately": 8238,
      "describes": 8239,
      "primarily": 8240,
      "montage": 8241,
      "montana": 8242,
      "domino": 8243,
      "consistent": 8244,
      "ethan": 8245,
      "earned": 8246,
      "fetched": 8247,
      "##uddled": 8248,
      "##____": 8249,
      "cuba": 8250,
      "cringe": 8251,
      "deliberately": 8252,
      "enormous": 8253,
      "museum": 8254,
      "lifestyle": 8255,
      "soviet": 8256,
      "cu": 8257,
      "cure": 8258,
      "darr": 8259,
      "eli": 8260,
      "easter": 8261,
      "holly": 8262,
      "kent": 8263,
      "ling": 8264,
      "ny": 8265,
      "niro": 8266,
      "ollie": 8267,
      "rural": 8268,
      "##dow": 8269,
      "##uity": 8270,
      "##gling": 8271,
      "##erk": 8272,
      "##atoes": 8273,
      "lip": 8274,
      "areas": 8275,
      "enem": 8276,
      "impe": 8277,
      "quotes": 8278,
      "user": 8279,
      "flir": 8280,
      "flies": 8281,
      "grie": 8282,
      "grotes": 8283,
      "##ocative": 8284,
      "simil": 8285,
      "esp": 8286,
      "elimin": 8287,
      "edit": 8288,
      "reads": 8289,
      "letters": 8290,
      "##aneously": 8291,
      "senseless": 8292,
      "possessed": 8293,
      "forms": 8294,
      "hopeless": 8295,
      "wont": 8296,
      "rocket": 8297,
      "psychopath": 8298,
      "promised": 8299,
      "honesty": 8300,
      "errors": 8301,
      "mistress": 8302,
      "##ivalent": 8303,
      "1996": 8304,
      "combine": 8305,
      "puppet": 8306,
      "unsatisf": 8307,
      "moody": 8308,
      "recognized": 8309,
      "recorded": 8310,
      "remarkably": 8311,
      "influenced": 8312,
      "hints": 8313,
      "nicol": 8314,
      "miserable": 8315,
      "philosophical": 8316,
      "aids": 8317,
      "colonel": 8318,
      "transformation": 8319,
      "##donald": 8320,
      "principal": 8321,
      "iraq": 8322,
      "grasp": 8323,
      "soccer": 8324,
      "22": 8325,
      "dazz": 8326,
      "eug": 8327,
      "jar": 8328,
      "loos": 8329,
      "mish": 8330,
      "rav": 8331,
      "wag": 8332,
      "##ecess": 8333,
      "##rina": 8334,
      "##book": 8335,
      "##ded": 8336,
      "##?!": 8337,
      "##inity": 8338,
      "topless": 8339,
      "##ancing": 8340,
      "##chi": 8341,
      "shod": 8342,
      "chased": 8343,
      "deaf": 8344,
      "enh": 8345,
      "##astically": 8346,
      "leo": 8347,
      "amanda": 8348,
      "poem": 8349,
      "gundam": 8350,
      "recru": 8351,
      "attorney": 8352,
      "apoc": 8353,
      "compens": 8354,
      "monkeys": 8355,
      "sounding": 8356,
      "polanski": 8357,
      "defense": 8358,
      "confident": 8359,
      "irres": 8360,
      "contrad": 8361,
      "pattern": 8362,
      "predecess": 8363,
      "prompt": 8364,
      "antw": 8365,
      "secretly": 8366,
      "climactic": 8367,
      "catches": 8368,
      "jumped": 8369,
      "trademark": 8370,
      "immig": 8371,
      "reaches": 8372,
      "label": 8373,
      "fooled": 8374,
      "mixture": 8375,
      "industrial": 8376,
      "displayed": 8377,
      "consistently": 8378,
      "horrifying": 8379,
      "robbery": 8380,
      "revolutionary": 8381,
      "brooklyn": 8382,
      "linda": 8383,
      "choreographed": 8384,
      "loren": 8385,
      "wrestling": 8386,
      "ignorant": 8387,
      "mickey": 8388,
      "purchase": 8389,
      "gentleman": 8390,
      "financial": 8391,
      "elephant": 8392,
      "resurrect": 8393,
      "amitabh": 8394,
      "enemies": 8395,
      "(!": 8396,
      ",,": 8397,
      "bent": 8398,
      "bark": 8399,
      "eri": 8400,
      "jod": 8401,
      "khan": 8402,
      "sore": 8403,
      "ties": 8404,
      "tier": 8405,
      "wt": 8406,
      "##tz": 8407,
      "##fight": 8408,
      "##itudes": 8409,
      "ingr": 8410,
      "brig": 8411,
      "##pel": 8412,
      "##raw": 8413,
      "orson": 8414,
      "overt": 8415,
      "blues": 8416,
      "poetic": 8417,
      "carla": 8418,
      "horn": 8419,
      "191": 8420,
      "recon": 8421,
      "parano": 8422,
      "sadd": 8423,
      "behave": 8424,
      "##ysis": 8425,
      "masters": 8426,
      "transition": 8427,
      "inferior": 8428,
      "opinions": 8429,
      "##etti": 8430,
      "grandfather": 8431,
      "surviving": 8432,
      "unsett": 8433,
      "bleed": 8434,
      "embarrassment": 8435,
      "scientific": 8436,
      "stereotype": 8437,
      "officers": 8438,
      "suitable": 8439,
      "surfing": 8440,
      "buffs": 8441,
      "sirk": 8442,
      "scarecrow": 8443,
      "simplistic": 8444,
      "blatant": 8445,
      "abysmal": 8446,
      "similarly": 8447,
      "90s": 8448,
      "cd": 8449,
      "ka": 8450,
      "taught": 8451,
      "vic": 8452,
      "wives": 8453,
      "##rest": 8454,
      "##mi": 8455,
      "##gle": 8456,
      "##hr": 8457,
      "thugs": 8458,
      "inject": 8459,
      "bron": 8460,
      "analy": 8461,
      "##ami": 8462,
      "##ersh": 8463,
      "prize": 8464,
      "wendy": 8465,
      "neph": 8466,
      "unrel": 8467,
      "mankind": 8468,
      "clut": 8469,
      "pee": 8470,
      "adams": 8471,
      "thru": 8472,
      "peoples": 8473,
      "flam": 8474,
      "rooney": 8475,
      "##ocol": 8476,
      "helpless": 8477,
      "classical": 8478,
      "schlock": 8479,
      "chronic": 8480,
      "engage": 8481,
      "christy": 8482,
      "christians": 8483,
      "patric": 8484,
      "wished": 8485,
      "##issa": 8486,
      "babe": 8487,
      "cliche": 8488,
      "photos": 8489,
      "claus": 8490,
      "closest": 8491,
      "communist": 8492,
      "trashy": 8493,
      "blew": 8494,
      "reaching": 8495,
      "angeles": 8496,
      "raymond": 8497,
      "voiced": 8498,
      "jonathan": 8499,
      "ethnic": 8500,
      "education": 8501,
      "tonight": 8502,
      "corruption": 8503,
      "championship": 8504,
      "agrees": 8505,
      "mummy": 8506,
      "exploration": 8507,
      "dedicated": 8508,
      "saga": 8509,
      "survivors": 8510,
      "journalist": 8511,
      "constructed": 8512,
      "##quisite": 8513,
      "unpredict": 8514,
      "jenny": 8515,
      "vengeance": 8516,
      "##function": 8517,
      "september": 8518,
      "paltrow": 8519,
      "tiresome": 8520,
      "')": 8521,
      "bump": 8522,
      "jed": 8523,
      "kyle": 8524,
      "sits": 8525,
      "wig": 8526,
      "##oen": 8527,
      "##oir": 8528,
      "##vest": 8529,
      "##ih": 8530,
      "##iably": 8531,
      "##fire": 8532,
      "##wright": 8533,
      "inane": 8534,
      "stoo": 8535,
      "shake": 8536,
      "hav": 8537,
      "macy": 8538,
      "##antino": 8539,
      "##arts": 8540,
      "##aste": 8541,
      "troops": 8542,
      "facing": 8543,
      "##pled": 8544,
      "##ivals": 8545,
      "realizing": 8546,
      "awak": 8547,
      "mayor": 8548,
      "recyc": 8549,
      "newly": 8550,
      "##acle": 8551,
      "invasion": 8552,
      "gloss": 8553,
      "staring": 8554,
      "engross": 8555,
      "##ggy": 8556,
      "advise": 8557,
      "namely": 8558,
      "spoke": 8559,
      "centers": 8560,
      "repub": 8561,
      "sweep": 8562,
      "1983": 8563,
      "germans": 8564,
      "improve": 8565,
      "bonus": 8566,
      "stevens": 8567,
      "disappeared": 8568,
      "duty": 8569,
      "applaud": 8570,
      "emphasis": 8571,
      "wandering": 8572,
      "shelley": 8573,
      "wrapped": 8574,
      "fulfill": 8575,
      "arrogant": 8576,
      "chicago": 8577,
      "cigar": 8578,
      "grotesque": 8579,
      "nephew": 8580,
      "cards": 8581,
      "faster": 8582,
      "kl": 8583,
      "molly": 8584,
      "roof": 8585,
      "wrap": 8586,
      "##riel": 8587,
      "##tr": 8588,
      "##hill": 8589,
      "##ieces": 8590,
      "repress": 8591,
      "stilted": 8592,
      "chess": 8593,
      "liz": 8594,
      "planned": 8595,
      "commend": 8596,
      "map": 8597,
      "##atched": 8598,
      "amid": 8599,
      "##agues": 8600,
      "willis": 8601,
      "blade": 8602,
      "##cia": 8603,
      "pretending": 8604,
      "joh": 8605,
      "misery": 8606,
      "coh": 8607,
      "mighty": 8608,
      "leaders": 8609,
      "stargate": 8610,
      "##rett": 8611,
      "pacif": 8612,
      "sadness": 8613,
      "lackl": 8614,
      "richards": 8615,
      "gender": 8616,
      "##ologue": 8617,
      "treats": 8618,
      "similarities": 8619,
      "equip": 8620,
      "writes": 8621,
      "catchy": 8622,
      "calm": 8623,
      "limits": 8624,
      "hyde": 8625,
      "channels": 8626,
      "jewel": 8627,
      "civilization": 8628,
      "formulaic": 8629,
      "rotten": 8630,
      "dinosaur": 8631,
      "alfred": 8632,
      "inappropriate": 8633,
      "crocodile": 8634,
      "technicol": 8635,
      "mundane": 8636,
      "republic": 8637,
      "barn": 8638,
      "cake": 8639,
      "cyc": 8640,
      "mud": 8641,
      "ustin": 8642,
      "##bly": 8643,
      "##leans": 8644,
      "##ovsky": 8645,
      "asp": 8646,
      "butler": 8647,
      "chop": 8648,
      "habit": 8649,
      "ath": 8650,
      "doct": 8651,
      "##antee": 8652,
      "enlight": 8653,
      "diana": 8654,
      "closed": 8655,
      "poe": 8656,
      "aggress": 8657,
      "partners": 8658,
      "grayson": 8659,
      "joined": 8660,
      "stiller": 8661,
      "bela": 8662,
      "minus": 8663,
      "humble": 8664,
      "persons": 8665,
      "absent": 8666,
      "entr": 8667,
      "confron": 8668,
      "lund": 8669,
      "useful": 8670,
      "winters": 8671,
      "considerable": 8672,
      "solution": 8673,
      "rooms": 8674,
      "hopper": 8675,
      "mclag": 8676,
      "richardson": 8677,
      "gangsters": 8678,
      "hunters": 8679,
      "halluc": 8680,
      "cleverly": 8681,
      "casual": 8682,
      "porno": 8683,
      "complexity": 8684,
      "dimension": 8685,
      "arrived": 8686,
      "conflicts": 8687,
      "responsibility": 8688,
      "celebrity": 8689,
      "contempl": 8690,
      "motivations": 8691,
      "simplicity": 8692,
      "alternative": 8693,
      "shelf": 8694,
      "frustration": 8695,
      "miracle": 8696,
      "floating": 8697,
      "corporate": 8698,
      "irrele": 8699,
      "fido": 8700,
      "dalton": 8701,
      "elegant": 8702,
      "stallone": 8703,
      "riveting": 8704,
      "safety": 8705,
      "beneath": 8706,
      "chorus": 8707,
      "##writers": 8708,
      "darren": 8709,
      "paranoia": 8710,
      "ustinov": 8711,
      "\"-": 8712,
      ")...": 8713,
      "aven": 8714,
      "dj": 8715,
      "hench": 8716,
      "june": 8717,
      "lav": 8718,
      "os": 8719,
      "##uge": 8720,
      "##yll": 8721,
      "##eson": 8722,
      "##omnia": 8723,
      "assem": 8724,
      "button": 8725,
      "prol": 8726,
      "abusive": 8727,
      "likewise": 8728,
      "divers": 8729,
      "showcase": 8730,
      "##icker": 8731,
      "poke": 8732,
      "##assy": 8733,
      "cary": 8734,
      "reson": 8735,
      "apple": 8736,
      "edgar": 8737,
      "waited": 8738,
      "raising": 8739,
      "alongside": 8740,
      "greedy": 8741,
      "potentially": 8742,
      "louise": 8743,
      "frankenstein": 8744,
      "fury": 8745,
      "delivering": 8746,
      "waitress": 8747,
      "literature": 8748,
      "randy": 8749,
      "scottish": 8750,
      "1968": 8751,
      "destroying": 8752,
      "square": 8753,
      "legal": 8754,
      "dirt": 8755,
      "unexpl": 8756,
      "widely": 8757,
      "incomprehensible": 8758,
      "vaguely": 8759,
      "solely": 8760,
      "incorpor": 8761,
      "poetry": 8762,
      "airplane": 8763,
      "stooges": 8764,
      "bast": 8765,
      "kum": 8766,
      "lens": 8767,
      "lately": 8768,
      "mtv": 8769,
      "oth": 8770,
      "omen": 8771,
      "pour": 8772,
      "uh": 8773,
      "wals": 8774,
      "wishing": 8775,
      "yok": 8776,
      "##ele": 8777,
      "##lines": 8778,
      "##yers": 8779,
      "##oms": 8780,
      "##oma": 8781,
      "##otte": 8782,
      "online": 8783,
      "reid": 8784,
      "reck": 8785,
      "##ids": 8786,
      "seld": 8787,
      "intric": 8788,
      "blur": 8789,
      "agents": 8790,
      "carell": 8791,
      "grind": 8792,
      "desired": 8793,
      "species": 8794,
      "attrib": 8795,
      "incest": 8796,
      "viewings": 8797,
      "tribe": 8798,
      "indiffer": 8799,
      "farrell": 8800,
      "helm": 8801,
      "monk": 8802,
      "tyr": 8803,
      "restored": 8804,
      "couples": 8805,
      "defined": 8806,
      "swall": 8807,
      "valuable": 8808,
      "##ushi": 8809,
      "peters": 8810,
      "patients": 8811,
      "suspicious": 8812,
      "duch": 8813,
      "melting": 8814,
      "descent": 8815,
      "##ucky": 8816,
      "claust": 8817,
      "operation": 8818,
      "designs": 8819,
      "1960s": 8820,
      "kicking": 8821,
      "kicked": 8822,
      "riot": 8823,
      "ramones": 8824,
      "depicts": 8825,
      "depressed": 8826,
      "connery": 8827,
      "ruby": 8828,
      "rubber": 8829,
      "intentionally": 8830,
      "agreed": 8831,
      "accompanied": 8832,
      "feminist": 8833,
      "taxi": 8834,
      "guarantee": 8835,
      "alleged": 8836,
      "bargain": 8837,
      "dysfunction": 8838,
      "unsettling": 8839,
      "75": 8840,
      "bumbling": 8841,
      "cav": 8842,
      "gym": 8843,
      "holl": 8844,
      "honey": 8845,
      "naught": 8846,
      "nuts": 8847,
      "rave": 8848,
      "wore": 8849,
      "wret": 8850,
      "##eur": 8851,
      "##vity": 8852,
      "##lins": 8853,
      "##?)": 8854,
      "##erate": 8855,
      "##edly": 8856,
      "##ilight": 8857,
      "stark": 8858,
      "##adine": 8859,
      "##idently": 8860,
      "##uri": 8861,
      "##essa": 8862,
      "scand": 8863,
      "scope": 8864,
      "plausible": 8865,
      "unit": 8866,
      "unle": 8867,
      "unst": 8868,
      "whats": 8869,
      "myers": 8870,
      "upl": 8871,
      "intimate": 8872,
      "spaces": 8873,
      "twilight": 8874,
      "##iley": 8875,
      "specially": 8876,
      "undert": 8877,
      "cheated": 8878,
      "##arring": 8879,
      "dana": 8880,
      "confidence": 8881,
      "graham": 8882,
      "visits": 8883,
      "drake": 8884,
      "dreck": 8885,
      "experiments": 8886,
      "copies": 8887,
      "lively": 8888,
      "petty": 8889,
      "towns": 8890,
      "convincingly": 8891,
      "protest": 8892,
      "equivalent": 8893,
      "questionable": 8894,
      "bands": 8895,
      "unden": 8896,
      "amounts": 8897,
      "dolls": 8898,
      "brutally": 8899,
      "robinson": 8900,
      "loaded": 8901,
      "ritual": 8902,
      "fleet": 8903,
      "bridget": 8904,
      "chapter": 8905,
      "stinks": 8906,
      "nerd": 8907,
      "charlotte": 8908,
      "nostalgic": 8909,
      "overacting": 8910,
      "neighbors": 8911,
      "basketball": 8912,
      "fiancé": 8913,
      "illegal": 8914,
      "helicopter": 8915,
      "orphan": 8916,
      "equipment": 8917,
      "walsh": 8918,
      "claustroph": 8919,
      "coc": 8920,
      "dw": 8921,
      "hi": 8922,
      "oly": 8923,
      "pants": 8924,
      "wwe": 8925,
      "##ipe": 8926,
      "##jay": 8927,
      "thorn": 8928,
      "therap": 8929,
      "##orc": 8930,
      "##lls": 8931,
      "##icia": 8932,
      "##adle": 8933,
      "##tery": 8934,
      "dee": 8935,
      "orleans": 8936,
      "##ptic": 8937,
      "bloom": 8938,
      "pock": 8939,
      "##ivable": 8940,
      "grate": 8941,
      "##cca": 8942,
      "surpass": 8943,
      "##ubby": 8944,
      "phony": 8945,
      "laughably": 8946,
      "monot": 8947,
      "audition": 8948,
      "glim": 8949,
      "murray": 8950,
      "household": 8951,
      "lowest": 8952,
      "understandable": 8953,
      "generated": 8954,
      "messed": 8955,
      "gregory": 8956,
      "despair": 8957,
      "ridden": 8958,
      "pops": 8959,
      "construction": 8960,
      "rukh": 8961,
      "ern": 8962,
      "exped": 8963,
      "survived": 8964,
      "catching": 8965,
      "##opped": 8966,
      "condem": 8967,
      "bottle": 8968,
      "remarks": 8969,
      "terrorists": 8970,
      "witches": 8971,
      "foolish": 8972,
      "eaten": 8973,
      "dressing": 8974,
      "understated": 8975,
      "advertising": 8976,
      "nicholas": 8977,
      "pierce": 8978,
      "deceased": 8979,
      "parallel": 8980,
      "analysis": 8981,
      "incompetent": 8982,
      "shangh": 8983,
      ",<": 8984,
      "cec": 8985,
      "gret": 8986,
      "meryl": 8987,
      "nathan": 8988,
      "pix": 8989,
      "vice": 8990,
      "##tte": 8991,
      "##town": 8992,
      "##uf": 8993,
      "##mp": 8994,
      "##gren": 8995,
      "##anos": 8996,
      "##iceless": 8997,
      "stale": 8998,
      "##eta": 8999,
      "sho": 9000,
      "##alled": 9001,
      "##amin": 9002,
      "sue": 9003,
      "##ulation": 9004,
      "scores": 9005,
      "worn": 9006,
      "##osis": 9007,
      "unse": 9008,
      "lect": 9009,
      "cloud": 9010,
      "willie": 9011,
      "greatness": 9012,
      "##iped": 9013,
      "keith": 9014,
      "downhill": 9015,
      "insomnia": 9016,
      "creator": 9017,
      "creativity": 9018,
      "morbid": 9019,
      "simpson": 9020,
      "##annah": 9021,
      "barrel": 9022,
      "masterful": 9023,
      "developing": 9024,
      "novak": 9025,
      "psychic": 9026,
      "duv": 9027,
      "damon": 9028,
      "1973": 9029,
      "buildings": 9030,
      "publish": 9031,
      "losers": 9032,
      "businessman": 9033,
      "tasteless": 9034,
      "balls": 9035,
      "masses": 9036,
      "prisoners": 9037,
      "recording": 9038,
      "angela": 9039,
      "testament": 9040,
      "fascinated": 9041,
      "compelled": 9042,
      "miy": 9043,
      "substit": 9044,
      "accomplish": 9045,
      "alternate": 9046,
      "hawke": 9047,
      "dropping": 9048,
      "enthusiasm": 9049,
      "excessive": 9050,
      "subplots": 9051,
      "nostalgia": 9052,
      "arguably": 9053,
      "assigned": 9054,
      "gabriel": 9055,
      "rhyth": 9056,
      "rifle": 9057,
      "kolch": 9058,
      "rabbit": 9059,
      "crystal": 9060,
      "mclaglen": 9061,
      "irrelevant": 9062,
      "othello": 9063,
      "wretched": 9064,
      "shanghai": 9065,
      "!,": 9066,
      ":-": 9067,
      "apt": 9068,
      "bost": 9069,
      "darn": 9070,
      "eb": 9071,
      "jord": 9072,
      "kings": 9073,
      "marth": 9074,
      "nar": 9075,
      "pas": 9076,
      "tin": 9077,
      "tube": 9078,
      "yard": 9079,
      "##bod": 9080,
      "##oh": 9081,
      "##woman": 9082,
      "##era": 9083,
      "##atable": 9084,
      "tod": 9085,
      "##ala": 9086,
      "##stage": 9087,
      "stab": 9088,
      "##entin": 9089,
      "priceless": 9090,
      "exquisite": 9091,
      "fee": 9092,
      "seeks": 9093,
      "quant": 9094,
      "yelling": 9095,
      "grass": 9096,
      "##angle": 9097,
      "belushi": 9098,
      "simult": 9099,
      "smiling": 9100,
      "comparing": 9101,
      "indic": 9102,
      "##aware": 9103,
      "coff": 9104,
      "visible": 9105,
      "suspend": 9106,
      "brend": 9107,
      "advanced": 9108,
      "demise": 9109,
      "capturing": 9110,
      "victory": 9111,
      "..<": 9112,
      "promises": 9113,
      "##hears": 9114,
      "landing": 9115,
      "matched": 9116,
      "rolled": 9117,
      "dais": 9118,
      "##........": 9119,
      "opportunities": 9120,
      "exceptionally": 9121,
      "##haust": 9122,
      "lengthy": 9123,
      "randomly": 9124,
      "biography": 9125,
      "fabric": 9126,
      "warmth": 9127,
      "sabrina": 9128,
      "frequent": 9129,
      "caliber": 9130,
      "beliefs": 9131,
      "inevitably": 9132,
      "barrymore": 9133,
      "purchased": 9134,
      "landscapes": 9135,
      "cybor": 9136,
      "album": 9137,
      "pamela": 9138,
      "august": 9139,
      "eugene": 9140,
      ".(": 9141,
      "cri": 9142,
      "dand": 9143,
      "furn": 9144,
      "gate": 9145,
      "gersh": 9146,
      "kra": 9147,
      "lena": 9148,
      "oct": 9149,
      "rats": 9150,
      "vance": 9151,
      "##rad": 9152,
      "##uction": 9153,
      "##list": 9154,
      "##lma": 9155,
      "##iour": 9156,
      "##gie": 9157,
      "##gra": 9158,
      "##atics": 9159,
      "asyl": 9160,
      "hears": 9161,
      "fren": 9162,
      "dele": 9163,
      "wholly": 9164,
      "congr": 9165,
      "meand": 9166,
      "intim": 9167,
      "tends": 9168,
      "spain": 9169,
      "muppet": 9170,
      "parties": 9171,
      "flag": 9172,
      "serving": 9173,
      "##ansas": 9174,
      "recre": 9175,
      "resident": 9176,
      "misle": 9177,
      "traff": 9178,
      "edition": 9179,
      "superst": 9180,
      "##erto": 9181,
      "blacks": 9182,
      "blackm": 9183,
      "excl": 9184,
      "bread": 9185,
      "brenda": 9186,
      "greed": 9187,
      "snob": 9188,
      "demean": 9189,
      "cannon": 9190,
      "hello": 9191,
      "suffice": 9192,
      "historically": 9193,
      "arrival": 9194,
      "##enez": 9195,
      "punishment": 9196,
      "domestic": 9197,
      "robbins": 9198,
      "cassidy": 9199,
      "educational": 9200,
      "owen": 9201,
      "manipulative": 9202,
      "heights": 9203,
      "survivor": 9204,
      "empathy": 9205,
      "borrowed": 9206,
      "mechanical": 9207,
      "unimagin": 9208,
      "junior": 9209,
      "wacky": 9210,
      "vulnerable": 9211,
      "wisdom": 9212,
      "technicolor": 9213,
      "!'": 9214,
      "cities": 9215,
      "dy": 9216,
      "goo": 9217,
      "nyc": 9218,
      "tent": 9219,
      "##rams": 9220,
      "##bury": 9221,
      "##aving": 9222,
      "##aign": 9223,
      "##low": 9224,
      "##holic": 9225,
      "/>***": 9226,
      "##leck": 9227,
      "##alie": 9228,
      "##sty": 9229,
      "##ione": 9230,
      "##ioni": 9231,
      "##uries": 9232,
      "sust": 9233,
      "sugar": 9234,
      "degr": 9235,
      "exhaust": 9236,
      "orange": 9237,
      "##ousing": 9238,
      "justin": 9239,
      "perm": 9240,
      "##icking": 9241,
      "betty": 9242,
      "##cience": 9243,
      "crown": 9244,
      "##forward": 9245,
      "awfully": 9246,
      "underlying": 9247,
      "obst": 9248,
      "trace": 9249,
      "subl": 9250,
      "buzz": 9251,
      "syl": 9252,
      "dreary": 9253,
      "greg": 9254,
      "tomatoes": 9255,
      "photo": 9256,
      "1984": 9257,
      "1987": 9258,
      "damme": 9259,
      "tarantino": 9260,
      "palace": 9261,
      "obsess": 9262,
      "beatles": 9263,
      "conduct": 9264,
      "recognition": 9265,
      "sandra": 9266,
      "legit": 9267,
      "legacy": 9268,
      "disgrace": 9269,
      "mentions": 9270,
      "progresses": 9271,
      "mccoy": 9272,
[...]
